[PAD]	0
[UNK]	0
[BOS]	0
[EOS]	0
[SEP]	0
[CLS]	0
[MASK]	0
세요	-0
▁사	-1
▁좋	-2
▁있	-3
▁이	-4
▁거	-5
하는	-6
보세요	-7
▁그	-8
▁나	-9
▁아	-10
예요	-11
▁마	-12
▁사람	-13
▁좋아	-14
어요	-15
▁같	-16
▁거예요	-17
▁하	-18
▁생	-19
▁다	-20
▁어	-21
▁가	-22
▁안	-23
▁해	-24
▁수	-25
▁사랑	-26
네요	-27
▁연	-28
▁없	-29
니다	-30
▁생각	-31
▁자	-32
▁잘	-33
▁힘	-34
친구	-35
▁싶	-36
▁여	-37
봐요	-38
▁너	-39
▁많	-40
▁말	-41
▁만	-42
▁남	-43
▁것	-44
▁시	-45
는데	-46
▁내	-47
▁마음	-48
▁않	-49
▁너무	-50
아요	-51
▁기	-52
▁보	-53
▁지	-54
▁오	-55
▁바	-56
▁좋아하는	-57
▁더	-58
해보세요	-59
▁이별	-60
▁정	-61
▁연락	-62
▁헤	-63
하고	-64
▁일	-65
▁헤어	-66
▁짝	-67
▁있을	-68
▁고	-69
▁썸	-70
▁여자	-71
▁남자	-72
으면	-73
▁되	-74
▁힘들	-75
▁좋은	-76
▁모	-77
▁한	-78
나봐요	-79
▁알	-80
하지	-81
▁많이	-82
▁시간	-83
▁게	-84
▁사람이	-85
▁때	-86
▁상	-87
에요	-88
▁저	-89
으로	-90
▁무	-91
▁못	-92
▁친구	-93
▁건	-94
한테	-95
에서	-96
▁전	-97
▁주	-98
▁먹	-99
▁좀	-100
▁중	-101
▁결	-102
해요	-103
▁같아요	-104
까요	-105
겠어요	-106
▁부	-107
▁있어요	-108
▁싶어	-109
▁인	-110
▁대	-111
▁살	-112
▁조	-113
▁당	-114
▁받	-115
▁뭐	-116
하면	-117
▁선	-118
▁될	-119
▁제	-120
▁후	-121
▁오늘	-122
▁같아	-123
▁만나	-124
▁할	-125
하세요	-126
이에요	-127
하게	-128
▁괜	-129
▁걸	-130
▁끝	-131
겠네요	-132
주세요	-133
▁자신	-134
▁소	-135
에게	-136
▁이제	-137
▁미	-138
▁진	-139
▁드	-140
겠지	-141
▁들	-142
▁좋을	-143
습니다	-144
▁아니	-145
▁괜찮	-146
▁마세요	-147
▁필	-148
라고	-149
▁잊	-150
▁감	-151
▁있는	-152
▁마음이	-153
▁하는	-154
▁연애	-155
▁비	-156
게요	-157
▁내가	-158
▁필요	-159
친구가	-160
는게	-161
▁해보세요	-162
▁혼	-163
▁스	-164
▁왜	-165
▁모르	-166
▁공	-167
다면	-168
▁어떻	-169
▁예	-170
▁차	-171
▁집	-172
▁다른	-173
가봐요	-174
▁타	-175
▁행	-176
▁어떻게	-177
▁물	-178
▁짝남	-179
▁시간이	-180
▁헤어진	-181
▁날	-182
▁돼	-183
다고	-184
▁서	-185
▁신	-186
▁없어	-187
▁도	-188
▁애	-189
▁당신	-190
겠어	-191
해도	-192
▁방	-193
▁싶다	-194
겠죠	-195
▁관	-196
▁우	-197
▁다시	-198
사랑	-199
▁혼자	-200
▁했	-201
▁맞	-202
▁있어	-203
▁눈	-204
인데	-205
▁하고	-206
▁또	-207
▁결혼	-208
▁정말	-209
들이	-210
▁지금	-211
▁정리	-212
▁노	-213
▁잠	-214
▁수도	-215
▁재	-216
▁기다	-217
▁찾	-218
▁싫	-219
▁계	-220
▁중요	-221
▁참	-222
▁새	-223
▁그런	-224
▁준	-225
야지	-226
이네요	-227
할까	-228
▁행복	-229
▁조금	-230
▁따	-231
▁편	-232
▁확	-233
▁같이	-234
어보세요	-235
▁데	-236
▁위	-237
렇게	-238
▁것도	-239
▁놀	-240
▁언	-241
은데	-242
▁고민	-243
▁얼	-244
라요	-245
▁쉬	-246
▁아직	-247
▁추	-248
▁두	-249
▁피	-250
▁짝사랑	-251
▁먼	-252
▁의	-253
이라	-254
▁반	-255
▁자꾸	-256
▁달	-257
▁성	-258
지만	-259
지도	-260
▁준비	-261
보다	-262
▁선물	-263
▁찾아	-264
▁배	-265
▁힘든	-266
▁누	-267
▁화	-268
▁보고	-269
▁아무	-270
합니다	-271
▁느	-272
▁저도	-273
▁변	-274
볼까	-275
▁고백	-276
▁없어요	-277
▁술	-278
까지	-279
야기	-280
이죠	-281
▁짝녀	-282
거예요	-283
▁맛	-284
▁바랄	-285
니까요	-286
▁카	-287
▁그럴	-288
겠다	-289
▁후회	-290
▁꿈	-291
▁몰	-292
▁운	-293
을까	-294
▁먼저	-295
▁서로	-296
▁진짜	-297
▁바랄게요	-298
해서	-299
▁없는	-300
▁충	-301
▁돼요	-302
▁방법	-303
▁사귀	-304
▁제가	-305
봅니다	-306
▁이야기	-307
▁심	-308
▁적	-309
▁문	-310
해야	-311
▁헤어지	-312
▁직	-313
▁시작	-314
▁동	-315
▁헤어진지	-316
▁불	-317
▁들어	-318
▁귀	-319
▁돌	-320
▁해야	-321
▁있을까	-322
▁올	-323
에는	-324
▁그녀	-325
▁하나	-326
이야	-327
인가	-328
▁계속	-329
▁일이	-330
▁답	-331
▁나를	-332
▁받아	-333
▁아닌	-334
▁좋아요	-335
▁버	-336
▁줄	-337
▁공부	-338
해주세요	-339
▁1	-340
▁매	-341
▁감정	-342
▁사랑이	-343
▁마음을	-344
이트	-345
▁가능	-346
▁될까	-347
▁보세요	-348
▁왔	-349
▁기분	-350
▁여자친구가	-351
▁먹고	-352
려고	-353
▁힘드	-354
▁남자친구가	-355
▁돈	-356
기가	-357
면서	-358
보는	-359
▁만들	-360
랍니다	-361
▁여자친구	-362
▁현	-363
▁실	-364
▁회	-365
대로	-366
했어	-367
▁드세요	-368
▁않아요	-369
▁하세요	-370
▁떨	-371
▁신경	-372
▁이상	-373
다는	-374
▁좋죠	-375
▁하루	-376
▁곳	-377
▁세	-378
▁쓰	-379
리는	-380
지는	-381
▁간	-382
니까	-383
▁많은	-384
▁하지	-385
▁걱	-386
▁머	-387
자고	-388
하기	-389
▁걱정	-390
▁떠	-391
▁믿	-392
▁알아	-393
▁속	-394
▁취	-395
▁함	-396
▁싫어	-397
입니다	-398
▁바랍니다	-399
나요	-400
▁상대	-401
▁분	-402
▁원	-403
▁표	-404
하는게	-405
▁영	-406
▁그래	-407
▁사랑하는	-408
▁관심	-409
▁기억	-410
▁힘들어	-411
▁쉽	-412
▁해요	-413
▁데이트	-414
▁남자친구	-415
적인	-416
▁상처	-417
▁생각해요	-418
▁말해보세요	-419
▁맘	-420
▁장	-421
▁커	-422
이랑	-423
▁축	-424
로운	-425
스러	-426
▁언제	-427
▁뭘	-428
▁입	-429
▁맛있	-430
▁어떨	-431
▁여행	-432
▁충분	-433
▁좋겠어요	-434
다가	-435
하죠	-436
▁무슨	-437
▁어떤	-438
▁있었	-439
▁앞	-440
▁엄	-441
▁용	-442
▁학	-443
▁있으면	-444
▁친구가	-445
▁외	-446
▁최	-447
이었	-448
텐데	-449
▁그냥	-450
▁대화	-451
▁카톡	-452
▁할까	-453
▁함께	-454
▁2	-455
▁구	-456
인지	-457
▁않는	-458
▁사람은	-459
▁이렇게	-460
▁발	-461
부터	-462
▁나만	-463
▁물어	-464
▁안돼	-465
▁3	-466
▁놓	-467
▁슬	-468
▁싸	-469
▁요	-470
▁오래	-471
▁헤어졌	-472
▁약	-473
하네	-474
▁내일	-475
▁누구	-476
▁않을	-477
▁표현	-478
▁몰라요	-479
▁힘드네	-480
▁머리	-481
▁이해	-482
▁궁	-483
▁열	-484
▁점	-485
라도	-486
▁여친	-487
▁전화	-488
겠지만	-489
▁자신을	-490
▁과	-491
가는	-492
▁사랑은	-493
▁길	-494
리고	-495
▁결정	-496
▁궁금	-497
▁많아	-498
▁운동	-499
▁이유	-500
▁하면	-501
▁됐	-502
▁설	-503
▁사람을	-504
▁새로운	-505
▁듯	-506
▁별	-507
▁호	-508
기도	-509
트레	-510
▁선택	-511
▁아프	-512
▁어디	-513
▁한달	-514
▁어떨까요	-515
▁늦	-516
▁단	-517
▁즐	-518
▁처	-519
▁돌아	-520
▁부담	-521
▁썸남	-522
▁스트레	-523
▁있는데	-524
▁생각해보세요	-525
▁복	-526
했던	-527
▁안되	-528
▁주세요	-529
▁깨	-530
▁치	-531
어도	-532
▁미련	-533
▁생겼	-534
▁해도	-535
▁잡	-536
▁타는	-537
▁회사	-538
▁나한테	-539
▁죽	-540
▁노력	-541
▁말고	-542
▁유	-543
▁챙	-544
▁첫	-545
개월	-546
었어	-547
해주	-548
▁보내	-549
▁직접	-550
▁아니에요	-551
거나	-552
나봐	-553
▁가고	-554
▁다가	-555
▁따라	-556
▁만큼	-557
▁순	-558
▁질	-559
▁그만	-560
▁때문	-561
▁않아	-562
▁인연	-563
▁지나	-564
았는데	-565
▁생각나	-566
▁생각이	-567
▁연락이	-568
▁좋겠네요	-569
▁갈	-570
▁막	-571
▁번	-572
▁와	-573
▁휴	-574
처럼	-575
▁그러	-576
▁싶은	-577
▁어떡	-578
▁생각을	-579
▁벌	-580
움이	-581
이나	-582
▁만날	-583
▁않았	-584
▁이젠	-585
▁재미	-586
▁경	-587
▁멋	-588
▁항	-589
군요	-590
▁그게	-591
▁소개	-592
▁어려	-593
▁항상	-594
으세요	-595
▁같은데	-596
▁괜찮아	-597
▁신경쓰	-598
나봅니다	-599
▁스트레스	-600
▁갑	-601
가요	-602
해지	-603
▁남친	-604
▁쉽지	-605
▁인생	-606
▁잘못	-607
▁저는	-608
▁그렇게	-609
▁마음에	-610
▁이별을	-611
▁짝남이	-612
▁완	-613
▁문제	-614
▁아파	-615
▁조심	-616
적으로	-617
▁허	-618
기를	-619
보고	-620
▁같은	-621
▁노래	-622
▁처음	-623
했는데	-624
▁바라요	-625
▁좋겠다	-626
인가봐요	-627
▁모르겠어	-628
▁몸	-629
▁봐	-630
▁붙	-631
거라	-632
어나	-633
▁느낌	-634
▁상황	-635
▁어때	-636
하네요	-637
하는데	-638
▁난	-639
하다	-640
▁때가	-641
▁우리	-642
리세요	-643
려보세요	-644
▁볼	-645
는지	-646
졌어	-647
▁나이	-648
▁달라	-649
▁만났	-650
▁변화	-651
▁축하	-652
▁중요한	-653
▁찾아보세요	-654
▁개	-655
▁꼭	-656
▁넘	-657
▁덜	-658
▁목	-659
▁손	-660
▁웃	-661
▁천	-662
▁크	-663
스럽	-664
습관	-665
▁확실	-666
▁사랑을	-667
▁결국	-668
▁답답	-669
▁위로	-670
▁챙겨	-671
▁화장	-672
▁이별은	-673
▁가보세요	-674
▁빠	-675
▁큰	-676
▁가는	-677
▁기대	-678
▁나는	-679
▁다음	-680
▁말을	-681
▁추억	-682
▁현실	-683
▁생각해	-684
▁괜찮아요	-685
▁포	-686
▁말씀	-687
▁사이	-688
▁세상	-689
▁영화	-690
▁요즘	-691
▁잊어	-692
▁힘내	-693
▁좋겠어	-694
▁충분히	-695
▁절	-696
▁친	-697
▁그렇	-698
▁대화를	-699
▁도움이	-700
▁사랑한	-701
▁태	-702
▁환	-703
▁흘	-704
감이	-705
는거	-706
만에	-707
심히	-708
지막	-709
지요	-710
▁의미	-711
▁있죠	-712
▁여자애	-713
▁열심히	-714
▁물어보세요	-715
▁뭔	-716
▁풀	-717
걸까	-718
동안	-719
싶어	-720
았어	-721
이네	-722
▁가져	-723
▁가지	-724
▁않은	-725
▁언젠	-726
▁추천	-727
▁확인	-728
▁마음의	-729
▁마지막	-730
▁아직도	-731
▁연락을	-732
▁좋을까	-733
▁밥	-734
▁종	-735
▁청	-736
것도	-737
보면	-738
▁말해	-739
▁먹어	-740
▁아침	-741
▁얼른	-742
▁정신	-743
▁집에	-744
이라도	-745
▁말아요	-746
▁싶은데	-747
▁식	-748
▁짜	-749
▁가슴	-750
▁건강	-751
▁관계	-752
▁나쁜	-753
▁만남	-754
▁부모	-755
▁습관	-756
▁어제	-757
▁때문에	-758
▁사랑의	-759
▁상대방	-760
▁시간을	-761
▁오늘도	-762
▁연락해보세요	-763
▁뿐	-764
▁키	-765
▁평	-766
라면	-767
사람	-768
워요	-769
일까	-770
▁되었	-771
▁매일	-772
▁짝녀가	-773
▁헤어짐	-774
으니까요	-775
한가봐요	-776
▁금	-777
▁된	-778
▁몇	-779
▁솔	-780
▁울	-781
▁프	-782
▁핸	-783
▁가장	-784
▁귀찮	-785
▁그리	-786
▁다르	-787
▁살고	-788
▁어느	-789
▁완전	-790
▁재회	-791
▁남자애	-792
▁당신의	-793
▁부모님	-794
▁조금만	-795
했나봐요	-796
▁있나봐요	-797
▁긴	-798
▁빨	-799
▁온	-800
▁졸	-801
▁티	-802
자기	-803
▁나가	-804
▁떨어	-805
▁바람	-806
▁아닐	-807
▁제일	-808
▁커피	-809
▁핸드	-810
릴게요	-811
▁조금씩	-812
▁해볼까	-813
▁헤어지고	-814
▁딱	-815
▁잔	-816
▁착	-817
감을	-818
신이	-819
▁대한	-820
▁못하	-821
▁알려	-822
▁얼마	-823
▁이런	-824
▁진심	-825
하면서	-826
▁남자가	-827
▁사람들	-828
▁오세요	-829
▁좋아하	-830
▁로	-831
▁작	-832
▁존	-833
▁통	-834
더니	-835
리가	-836
한지	-837
▁같애	-838
▁거라	-839
▁많았	-840
▁모든	-841
▁성공	-842
▁순간	-843
▁자연	-844
▁잘할	-845
▁그래도	-846
▁핸드폰	-847
▁글	-848
▁꾸	-849
▁초	-850
▁파	-851
스로	-852
▁맞는	-853
▁살아	-854
▁엄마	-855
▁연습	-856
▁인정	-857
▁주말	-858
▁한번	-859
스러운	-860
▁기다리	-861
▁이별이	-862
▁자신의	-863
▁사람이랑	-864
▁중요해요	-865
▁조심하세요	-866
▁망	-867
폭풍	-868
▁되는	-869
▁사진	-870
▁엄청	-871
▁없을	-872
▁갑자기	-873
▁모르는	-874
▁합니다	-875
▁했는데	-876
▁사람들이	-877
▁알았는데	-878
▁강	-879
▁네	-880
수록	-881
적이	-882
지지	-883
▁가끔	-884
▁복잡	-885
▁얼굴	-886
▁없네	-887
▁예뻐	-888
▁예의	-889
▁왔어	-890
▁잊혀	-891
▁재밌	-892
▁스스로	-893
▁여자가	-894
▁좋아할	-895
▁필요한	-896
하겠어요	-897
▁갖	-898
▁욕	-899
▁음	-900
▁짧	-901
▁탈	-902
같은	-903
▁날씨	-904
▁남편	-905
▁모두	-906
▁상관	-907
▁쉬운	-908
▁자주	-909
▁지내	-910
달라고	-911
마세요	-912
▁만나고	-913
▁소개팅	-914
▁정리가	-915
▁짝남한테	-916
▁5	-917
▁극	-918
▁면	-919
▁야	-920
왔어	-921
▁떠나	-922
▁마시	-923
▁뭘까	-924
▁보는	-925
▁보이	-926
▁알바	-927
▁저랑	-928
었는데	-929
▁기분이	-930
▁당신이	-931
▁사람한테	-932
▁끊	-933
▁듣	-934
▁옷	-935
▁흐	-936
거리	-937
기로	-938
다니	-939
력이	-940
만큼	-941
없이	-942
▁눈물	-943
▁되나	-944
▁무서	-945
▁무시	-946
▁실수	-947
▁아픈	-948
▁짜증	-949
▁피곤	-950
▁싶어요	-951
▁어떡해	-952
▁연락해	-953
▁있다면	-954
▁잘하는	-955
▁후폭풍	-956
▁생각보다	-957
▁모르겠어요	-958
▁4	-959
▁견	-960
▁꽃	-961
▁둘	-962
▁똑	-963
▁월	-964
▁줘	-965
가고	-966
건가	-967
려요	-968
쁘게	-969
해질	-970
▁나와	-971
▁도와	-972
▁별로	-973
▁아픔	-974
▁정도	-975
▁기다려	-976
▁만들어	-977
▁오늘은	-978
▁지금도	-979
▁받아들이	-980
▁본	-981
▁봄	-982
▁코	-983
▁흔	-984
일째	-985
지가	-986
천히	-987
해줘	-988
▁가족	-989
▁걸까	-990
▁극복	-991
▁끝나	-992
▁모습	-993
▁뭐가	-994
▁붙잡	-995
▁빨리	-996
▁사는	-997
▁솔직	-998
▁지켜	-999
▁차단	-1000
▁학교	-1001
▁괜찮은	-1002
▁사랑에	-1003
▁잘하고	-1004
▁천천히	-1005
▁친구랑	-1006
▁6	-1007
▁갔	-1008
▁뒤	-1009
▁밤	-1010
▁양	-1011
▁은	-1012
▁출	-1013
같아	-1014
마다	-1015
시간	-1016
▁감기	-1017
▁것이	-1018
▁그분	-1019
▁다녀	-1020
▁따뜻	-1021
▁마주	-1022
▁벌써	-1023
▁보여	-1024
▁자기	-1025
▁점점	-1026
▁환승	-1027
기까지	-1028
▁맛있게	-1029
▁인연이	-1030
▁확신이	-1031
▁빌	-1032
▁익	-1033
기는	-1034
이면	-1035
주는	-1036
▁끝났	-1037
▁내려	-1038
▁두려	-1039
▁만난	-1040
▁살펴	-1041
▁설레	-1042
▁아이	-1043
▁운명	-1044
▁직장	-1045
▁하죠	-1046
▁힘이	-1047
겠지요	-1048
▁다가가	-1049
▁당신을	-1050
▁사람도	-1051
▁사세요	-1052
▁자신이	-1053
▁하는데	-1054
드릴게요	-1055
!!	-1056
▁담	-1057
▁병	-1058
▁책	-1059
거야	-1060
라는	-1061
이별	-1062
하나	-1063
▁날이	-1064
▁놓아	-1065
▁배우	-1066
▁봐요	-1067
▁잠시	-1068
▁주변	-1069
▁행동	-1070
▁이유가	-1071
▁첫사랑	-1072
▁하나씩	-1073
▁힘들었	-1074
하겠네요	-1075
▁연락하고	-1076
▁힘내세요	-1077
▁군	-1078
▁능	-1079
▁멀	-1080
▁베	-1081
▁응	-1082
▁찍	-1083
리지	-1084
어가	-1085
있는	-1086
▁게임	-1087
▁나서	-1088
▁눈을	-1089
▁되길	-1090
▁성격	-1091
▁익숙	-1092
▁일찍	-1093
스러워	-1094
▁믿어요	-1095
▁사귀고	-1096
▁아닌데	-1097
▁언젠간	-1098
▁친구들	-1099
▁많았어요	-1100
▁뿐이에요	-1101
▁서로에게	-1102
▁신경쓰지	-1103
▁괴	-1104
▁교	-1105
▁맨	-1106
▁메	-1107
▁얘	-1108
로워	-1109
▁나도	-1110
▁나을	-1111
▁놀러	-1112
▁도전	-1113
▁마련	-1114
▁무엇	-1115
▁받고	-1116
▁스타	-1117
▁슬픈	-1118
▁않죠	-1119
▁있나	-1120
▁즐거	-1121
▁지났	-1122
▁집착	-1123
다보면	-1124
▁힘들다	-1125
▁해주세요	-1126
▁깊	-1127
▁명	-1128
남친	-1129
래도	-1130
에도	-1131
여친	-1132
▁가서	-1133
▁거죠	-1134
▁관리	-1135
▁나아	-1136
▁나오	-1137
▁느껴	-1138
▁아는	-1139
▁안녕	-1140
▁오랜	-1141
▁이겨	-1142
▁자존	-1143
▁주무	-1144
▁후련	-1145
▁만나는	-1146
▁행복해	-1147
▁힘들게	-1148
▁있었나봐요	-1149
▁곧	-1150
▁법	-1151
▁삶	-1152
▁척	-1153
▁헷	-1154
생활	-1155
어야	-1156
이는	-1157
하길	-1158
▁거짓	-1159
▁끝이	-1160
▁다행	-1161
▁말이	-1162
▁뭐야	-1163
▁알게	-1164
▁여유	-1165
▁연인	-1166
▁용기	-1167
▁우울	-1168
▁위해	-1169
▁잊지	-1170
▁자체	-1171
▁최고	-1172
▁카페	-1173
▁포기	-1174
▁헷갈	-1175
이었을	-1176
▁생각할	-1177
▁원하는	-1178
▁이상형	-1179
▁일어나	-1180
▁좋아해	-1181
▁못하겠어	-1182
▁아무것도	-1183
▁아무래도	-1184
▁이별한지	-1185
▁낫	-1186
▁봤	-1187
▁접	-1188
▁향	-1189
르고	-1190
사를	-1191
여행	-1192
정이	-1193
중에	-1194
지고	-1195
▁꿈에	-1196
▁눈이	-1197
▁되지	-1198
▁부족	-1199
▁비싸	-1200
▁소중	-1201
▁썸타	-1202
▁없이	-1203
▁응원	-1204
▁전에	-1205
▁했어	-1206
했어요	-1207
▁거짓말	-1208
▁곳으로	-1209
▁귀찮아	-1210
▁먹으면	-1211
▁보고싶	-1212
▁여친이	-1213
▁이별후	-1214
▁지금은	-1215
여보세요	-1216
▁먹어야지	-1217
▁사랑했던	-1218
▁주무세요	-1219
▁까	-1220
▁빼	-1221
▁읽	-1222
▁증	-1223
버렸	-1224
져요	-1225
한데	-1226
▁금방	-1227
▁늦지	-1228
▁다를	-1229
▁데려	-1230
▁미안	-1231
▁보면	-1232
▁보통	-1233
▁부러	-1234
▁생일	-1235
▁싸우	-1236
▁없죠	-1237
▁죽을	-1238
▁그녀를	-1239
▁나중에	-1240
▁많아요	-1241
▁사귀는	-1242
▁싶네요	-1243
▁아니라	-1244
▁않아도	-1245
▁예의가	-1246
▁전남친	-1247
▁친구를	-1248
▁필요해	-1249
었나봐요	-1250
▁괜찮을까	-1251
▁좋아하게	-1252
▁좋아하면	-1253
▁필요해요	-1254
▁가져보세요	-1255
▁.	-1256
▁냉	-1257
▁벗	-1258
▁숨	-1259
▁써	-1260
▁쓸	-1261
▁에	-1262
더라	-1263
리를	-1264
사친	-1265
야죠	-1266
움을	-1267
▁건지	-1268
▁고생	-1269
▁대로	-1270
▁맨날	-1271
▁미리	-1272
▁받는	-1273
▁부분	-1274
▁소식	-1275
▁애가	-1276
▁어렵	-1277
▁우산	-1278
▁월급	-1279
▁일을	-1280
▁잊는	-1281
▁작은	-1282
▁잠이	-1283
▁주는	-1284
▁중에	-1285
▁진정	-1286
▁충전	-1287
스럽게	-1288
이라면	-1289
해주는	-1290
했으면	-1291
▁감정을	-1292
▁남편이	-1293
▁당신은	-1294
▁때까지	-1295
▁만나지	-1296
▁만났어	-1297
▁없네요	-1298
▁이별의	-1299
▁전여친	-1300
겠습니다	-1301
▁중요하지	-1302
▁짝녀한테	-1303
▁친구한테	-1304
▁살펴보세요	-1305
▁확인해보세요	-1306
▁근	-1307
▁높	-1308
▁산	-1309
▁폰	-1310
건지	-1311
대요	-1312
밖에	-1313
쇼핑	-1314
아서	-1315
으니	-1316
이가	-1317
장이	-1318
하려	-1319
하시	-1320
▁기회	-1321
▁되어	-1322
▁드는	-1323
▁로맨	-1324
▁바쁜	-1325
▁받을	-1326
▁방학	-1327
▁비밀	-1328
▁생길	-1329
▁쉬고	-1330
▁시험	-1331
▁아름	-1332
▁안나	-1333
▁안해	-1334
▁알고	-1335
▁앞에	-1336
▁약속	-1337
▁자책	-1338
▁잠깐	-1339
▁종교	-1340
▁편이	-1341
▁하늘	-1342
▁흘렀	-1343
야겠다	-1344
하겠죠	-1345
해야지	-1346
▁가세요	-1347
▁관심이	-1348
▁누구나	-1349
▁변화가	-1350
▁언제나	-1351
▁예쁘게	-1352
▁해봐요	-1353
▁확실한	-1354
▁힘들죠	-1355
▁고민이야	-1356
▁남자애가	-1357
▁연락해도	-1358
▁좋아하는데	-1359
▁사랑해주세요	-1360
▁헤어졌습니다	-1361
ᅲᅲ	-1362
겠네	-1363
기만	-1364
당히	-1365
들어	-1366
들은	-1367
리게	-1368
하니	-1369
▁가기	-1370
▁꾸준	-1371
▁끝내	-1372
▁돈이	-1373
▁마셔	-1374
▁맞춰	-1375
▁멋진	-1376
▁미치	-1377
▁바로	-1378
▁바쁘	-1379
▁분위	-1380
▁시원	-1381
▁않고	-1382
▁이번	-1383
▁이어	-1384
▁장난	-1385
▁즐기	-1386
▁타고	-1387
▁허전	-1388
이라는	-1389
▁고민이	-1390
▁궁금해	-1391
▁그래요	-1392
▁맛있는	-1393
▁사랑할	-1394
▁생각만	-1395
▁아닌지	-1396
▁알려줘	-1397
▁없다면	-1398
▁재미있	-1399
▁즐거운	-1400
▁같습니다	-1401
▁사랑하고	-1402
▁짝남이랑	-1403
▁힘들어요	-1404
▁골	-1405
▁옆	-1406
▁채	-1407
▁칭	-1408
들을	-1409
디어	-1410
일이	-1411
퇴근	-1412
▁당연	-1413
▁됐어	-1414
▁되네	-1415
▁드라	-1416
▁먹을	-1417
▁바라	-1418
▁바보	-1419
▁보지	-1420
▁쇼핑	-1421
▁스킨	-1422
▁시켜	-1423
▁어울	-1424
▁어쩌	-1425
▁여러	-1426
▁이러	-1427
▁절대	-1428
▁존중	-1429
▁취미	-1430
▁칭찬	-1431
▁해결	-1432
더라고	-1433
잖아요	-1434
줬으면	-1435
▁드디어	-1436
▁못하는	-1437
▁받아들	-1438
▁봅니다	-1439
▁상처받	-1440
▁이제는	-1441
▁있는지	-1442
▁좋겠죠	-1443
▁좋은데	-1444
▁중인데	-1445
▁여자애가	-1446
▁친구들이	-1447
▁힘들겠지만	-1448
??	-1449
▁등	-1450
가를	-1451
줄까	-1452
해져	-1453
▁가면	-1454
▁가야	-1455
▁간다	-1456
▁경우	-1457
▁곳이	-1458
▁동거	-1459
▁때도	-1460
▁마요	-1461
▁문자	-1462
▁뭔가	-1463
▁뭔지	-1464
▁미워	-1465
▁싫다	-1466
▁안경	-1467
▁않길	-1468
▁예민	-1469
▁예쁜	-1470
▁이성	-1471
▁일은	-1472
▁잊고	-1473
▁자격	-1474
▁지쳤	-1475
▁차분	-1476
▁하셨	-1477
▁해서	-1478
▁헤아	-1479
보는게	-1480
해지는	-1481
▁가슴이	-1482
▁괜찮을	-1483
▁두려워	-1484
▁로맨틱	-1485
▁뭐라고	-1486
▁미련이	-1487
▁사람에	-1488
▁사랑해	-1489
▁시간은	-1490
▁어느덧	-1491
▁어려워	-1492
▁짜증나	-1493
더라고요	-1494
신가봐요	-1495
▁거기까지	-1496
▁아닐까요	-1497
▁않는다면	-1498
▁있습니다	-1499
▁자책하지	-1500
▁독	-1501
▁밀	-1502
▁삼	-1503
▁역	-1504
▁택	-1505
▁터	-1506
년이	-1507
받고	-1508
음이	-1509
이밍	-1510
이지	-1511
자리	-1512
전히	-1513
한게	-1514
해졌	-1515
▁10	-1516
▁것을	-1517
▁기본	-1518
▁까먹	-1519
▁나랑	-1520
▁되고	-1521
▁두달	-1522
▁못해	-1523
▁번호	-1524
▁보러	-1525
▁볼까	-1526
▁서운	-1527
▁슬프	-1528
▁썸녀	-1529
▁어쩔	-1530
▁오는	-1531
▁조언	-1532
▁취직	-1533
▁커플	-1534
▁태어	-1535
▁해주	-1536
답니다	-1537
드려요	-1538
▁그대로	-1539
▁그러면	-1540
▁그리고	-1541
▁마음도	-1542
▁마음은	-1543
▁문제가	-1544
▁방법이	-1545
▁안되는	-1546
▁타이밍	-1547
▁헤어져	-1548
가봅니다	-1549
아보세요	-1550
▁물어보는	-1551
▁사랑하면	-1552
▁생각하고	-1553
▁축하해요	-1554
▁다행이에요	-1555
▁받아들이는	-1556
▁부담스러워	-1557
▁자연스러운	-1558
▁좋아하는게	-1559
▁꿨	-1560
▁뜻	-1561
▁멈	-1562
▁멍	-1563
▁쌓	-1564
▁클	-1565
▁특	-1566
▁희	-1567
니가	-1568
덤덤	-1569
때는	-1570
리스	-1571
마스	-1572
보여	-1573
생님	-1574
스크	-1575
식을	-1576
심해	-1577
야할	-1578
연애	-1579
자는	-1580
했다	-1581
▁갖고	-1582
▁군대	-1583
▁귀여	-1584
▁떨려	-1585
▁뭐든	-1586
▁배워	-1587
▁불편	-1588
▁사과	-1589
▁상담	-1590
▁소리	-1591
▁일주	-1592
▁잊을	-1593
▁자유	-1594
▁저를	-1595
▁적응	-1596
▁졸업	-1597
▁집중	-1598
▁최선	-1599
▁흔들	-1600
가세요	-1601
오세요	-1602
▁가지고	-1603
▁같네요	-1604
▁것보다	-1605
▁관심을	-1606
▁꾸준히	-1607
▁능력이	-1608
▁무서워	-1609
▁선생님	-1610
▁썸남이	-1611
▁어려운	-1612
▁용기를	-1613
▁위로해	-1614
▁이상한	-1615
▁잊어버	-1616
▁적당히	-1617
▁준비가	-1618
▁충분한	-1619
▁화장실	-1620
상이에요	-1621
▁기다리고	-1622
▁다음에는	-1623
▁말하세요	-1624
▁사람마다	-1625
▁않았으면	-1626
▁진심으로	-1627
▁헤어졌어	-1628
▁후회하지	-1629
▁사람이네요	-1630
▁힘들겠어요	-1631
▁삭	-1632
▁샀	-1633
냄새	-1634
만의	-1635
시켜	-1636
오네	-1637
치가	-1638
한거	-1639
한다	-1640
함이	-1641
▁고마	-1642
▁그건	-1643
▁끝을	-1644
▁나온	-1645
▁누가	-1646
▁당당	-1647
▁대학	-1648
▁두근	-1649
▁몰랐	-1650
▁몸이	-1651
▁배려	-1652
▁병원	-1653
▁삭제	-1654
▁생기	-1655
▁어색	-1656
▁연예	-1657
▁오빠	-1658
▁원래	-1659
▁위험	-1660
▁이기	-1661
▁일어	-1662
▁잠수	-1663
▁잠을	-1664
▁적극	-1665
▁좋았	-1666
▁질투	-1667
▁집안	-1668
▁청소	-1669
▁출근	-1670
▁키우	-1671
하려고	-1672
▁가야지	-1673
▁감정이	-1674
▁그녀가	-1675
▁그사람	-1676
▁남친이	-1677
▁받았어	-1678
▁사람과	-1679
▁스킨십	-1680
▁스타일	-1681
▁있나요	-1682
▁있네요	-1683
▁저에게	-1684
▁제대로	-1685
▁하는게	-1686
았나봐요	-1687
▁사람에게	-1688
▁않을까요	-1689
▁있겠어요	-1690
▁있잖아요	-1691
▁자신에게	-1692
▁후폭풍이	-1693
▁만나보세요	-1694
▁좋아하는지	-1695
▁S	-1696
▁각	-1697
▁걷	-1698
▁권	-1699
▁꼬	-1700
▁셀	-1701
▁철	-1702
▁체	-1703
▁톡	-1704
▁투	-1705
▁팔	-1706
가지	-1707
내고	-1708
내서	-1709
년째	-1710
놓고	-1711
려면	-1712
르는	-1713
사가	-1714
시길	-1715
시는	-1716
었다	-1717
이요	-1718
인거	-1719
▁감사	-1720
▁경험	-1721
▁꿈을	-1722
▁나눠	-1723
▁놀이	-1724
▁다이	-1725
▁담배	-1726
▁당황	-1727
▁무너	-1728
▁무뎌	-1729
▁발표	-1730
▁버려	-1731
▁버텨	-1732
▁보냈	-1733
▁본인	-1734
▁쉽게	-1735
▁싫은	-1736
▁안타	-1737
▁애랑	-1738
▁얘기	-1739
▁어플	-1740
▁올려	-1741
▁좋다	-1742
▁좋지	-1743
▁착각	-1744
▁편지	-1745
▁프로	-1746
▁하기	-1747
됩니다	-1748
인가봐	-1749
하다고	-1750
▁데려다	-1751
▁말하는	-1752
▁머리가	-1753
▁사람의	-1754
▁상황을	-1755
▁서로를	-1756
▁성격이	-1757
▁아름다	-1758
▁안하고	-1759
▁연예인	-1760
▁완전히	-1761
▁있어도	-1762
▁좋아한	-1763
▁하나도	-1764
▁해보는	-1765
▁행복한	-1766
▁후회할	-1767
▁되겠네요	-1768
▁만나자고	-1769
▁보고싶어	-1770
▁일이에요	-1771
▁자신감을	-1772
▁그런가봐요	-1773
..	-1774
▁겨	-1775
▁났	-1776
▁늘	-1777
▁판	-1778
고생	-1779
구나	-1780
리면	-1781
만이	-1782
상을	-1783
성이	-1784
시다	-1785
어머	-1786
없는	-1787
었네	-1788
워질	-1789
이길	-1790
장을	-1791
지네	-1792
질까	-1793
▁같네	-1794
▁과정	-1795
▁귀엽	-1796
▁기운	-1797
▁끝은	-1798
▁나타	-1799
▁동생	-1800
▁드시	-1801
▁말도	-1802
▁먹는	-1803
▁바꿔	-1804
▁바빠	-1805
▁발전	-1806
▁부탁	-1807
▁사실	-1808
▁살짝	-1809
▁새벽	-1810
▁생긴	-1811
▁속이	-1812
▁싶지	-1813
▁안됐	-1814
▁우선	-1815
▁위한	-1816
▁인사	-1817
▁일도	-1818
▁있고	-1819
▁점심	-1820
▁존재	-1821
▁주고	-1822
▁차이	-1823
▁피부	-1824
▁해줘	-1825
으면서	-1826
인가요	-1827
▁그리워	-1828
▁기다릴	-1829
▁놀아요	-1830
▁눈물이	-1831
▁돌아오	-1832
▁맘고생	-1833
▁못하고	-1834
▁무엇이	-1835
▁아무리	-1836
▁안들어	-1837
▁연습을	-1838
▁한동안	-1839
▁호감이	-1840
▁혼자가	-1841
▁힘들지	-1842
리스마스	-1843
했습니다	-1844
▁만나세요	-1845
▁놓아주세요	-1846
▁생각하세요	-1847
▁축하드려요	-1848
▁말씀해주세요	-1849
▁시작해보세요	-1850
NS	-1851
▁7	-1852
▁깔	-1853
▁꺼	-1854
▁뜨	-1855
▁리	-1856
▁침	-1857
나는	-1858
냐고	-1859
력을	-1860
말고	-1861
봐도	-1862
상이	-1863
어트	-1864
었을	-1865
웨딩	-1866
음을	-1867
이다	-1868
줬어	-1869
▁가치	-1870
▁갈까	-1871
▁걸로	-1872
▁계획	-1873
▁고쳐	-1874
▁괜히	-1875
▁괴롭	-1876
▁그랬	-1877
▁그럼	-1878
▁다니	-1879
▁듣고	-1880
▁따로	-1881
▁떠난	-1882
▁면접	-1883
▁목소	-1884
▁못한	-1885
▁무섭	-1886
▁바뀌	-1887
▁받지	-1888
▁배고	-1889
▁버스	-1890
▁비가	-1891
▁살까	-1892
▁속상	-1893
▁쉬는	-1894
▁쓰레	-1895
▁애매	-1896
▁없나	-1897
▁없다	-1898
▁없애	-1899
▁우연	-1900
▁의지	-1901
▁이름	-1902
▁이용	-1903
▁자고	-1904
▁저녁	-1905
▁주면	-1906
▁지우	-1907
▁지쳐	-1908
▁퇴근	-1909
▁프사	-1910
▁피해	-1911
▁학원	-1912
▁한잔	-1913
▁했던	-1914
다가도	-1915
두세요	-1916
드세요	-1917
하다면	-1918
▁SNS	-1919
▁가자고	-1920
▁남자를	-1921
▁되는데	-1922
▁만나서	-1923
▁아는데	-1924
▁외로워	-1925
▁이상해	-1926
▁지나갈	-1927
▁추억이	-1928
▁친구로	-1929
▁괜찮아졌	-1930
▁괜찮아질	-1931
▁다이어트	-1932
▁생각하는	-1933
▁연락하면	-1934
▁오랜만에	-1935
▁좋을텐데	-1936
하지마세요	-1937
▁모르겠네요	-1938
▁사랑하는데	-1939
▁사랑한다고	-1940
▁여자친구와	-1941
▁자연스럽게	-1942
▁크리스마스	-1943
▁현상이에요	-1944
▁말씀해보세요	-1945
▁이야기해보세요	-1946
▁낭	-1947
▁뒷	-1948
▁뿌	-1949
▁억	-1950
▁업	-1951
▁트	-1952
▁페	-1953
느라	-1954
됐어	-1955
리기	-1956
서관	-1957
소한	-1958
어서	-1959
였어	-1960
주가	-1961
지면	-1962
치고	-1963
치는	-1964
했을	-1965
▁가벼	-1966
▁간절	-1967
▁거야	-1968
▁거절	-1969
▁건가	-1970
▁견디	-1971
▁꿈이	-1972
▁냄새	-1973
▁누군	-1974
▁눈에	-1975
▁느끼	-1976
▁대해	-1977
▁돈을	-1978
▁되면	-1979
▁많죠	-1980
▁미래	-1981
▁바뀔	-1982
▁불안	-1983
▁비교	-1984
▁사라	-1985
▁소화	-1986
▁신혼	-1987
▁심해	-1988
▁안와	-1989
▁안좋	-1990
▁영원	-1991
▁오해	-1992
▁이거	-1993
▁이사	-1994
▁이혼	-1995
▁인형	-1996
▁일상	-1997
▁있지	-1998
▁주지	-1999
▁취업	-2000
일지도	-2001
하니까	-2002
해봐요	-2003
해지면	-2004
▁결혼식	-2005
▁나이가	-2006
▁날씨가	-2007
▁내일은	-2008
▁도서관	-2009
▁될까요	-2010
▁만나면	-2011
▁뭐하지	-2012
▁분위기	-2013
▁붙잡고	-2014
▁상처를	-2015
▁선택일	-2016
▁소중한	-2017
▁쉬세요	-2018
▁안해도	-2019
▁앞에서	-2020
▁앞으로	-2021
▁어쩌지	-2022
▁없는데	-2023
▁여유를	-2024
▁연락처	-2025
▁일주일	-2026
▁장거리	-2027
▁필요할	-2028
▁했으면	-2029
▁호감을	-2030
▁확실히	-2031
을거예요	-2032
▁기다리는	-2033
▁만났는데	-2034
▁부담스럽	-2035
▁생각나는	-2036
▁않았어요	-2037
▁연락하지	-2038
▁좋아할까	-2039
▁궁금하네요	-2040
▁사람이에요	-2041
▁지켜보세요	-2042
▁짝사랑하는	-2043
▁들어드릴게요	-2044
▁8	-2045
▁끄	-2046
▁됨	-2047
▁든	-2048
▁딸	-2049
▁뻔	-2050
▁썼	-2051
▁쐬	-2052
▁염	-2053
▁잤	-2054
▁짐	-2055
▁찌	-2056
▁틀	-2057
▁헛	-2058
간이	-2059
거려	-2060
러가	-2061
세먼	-2062
심이	-2063
었던	-2064
여자	-2065
요일	-2066
으시	-2067
인듯	-2068
주지	-2069
하셨	-2070
할지	-2071
▁가까	-2072
▁갑작	-2073
▁개인	-2074
▁거울	-2075
▁결과	-2076
▁기념	-2077
▁깔끔	-2078
▁나의	-2079
▁내는	-2080
▁느려	-2081
▁대단	-2082
▁되죠	-2083
▁때는	-2084
▁멋있	-2085
▁못할	-2086
▁미친	-2087
▁반복	-2088
▁불러	-2089
▁비슷	-2090
▁사귈	-2091
▁슬퍼	-2092
▁썸이	-2093
▁않네	-2094
▁야근	-2095
▁역시	-2096
▁옆에	-2097
▁완벽	-2098
▁왔다	-2099
▁잡고	-2100
▁조급	-2101
▁졸려	-2102
▁차별	-2103
▁치과	-2104
▁크게	-2105
▁호감	-2106
듭니다	-2107
면서도	-2108
으려고	-2109
적이든	-2110
▁가능할	-2111
▁걱정돼	-2112
▁걱정되	-2113
▁그녀의	-2114
▁꿈에서	-2115
▁달라고	-2116
▁때네요	-2117
▁마스크	-2118
▁무서운	-2119
▁벗어나	-2120
▁상황이	-2121
▁시작이	-2122
▁쓰레기	-2123
▁아무도	-2124
▁않으면	-2125
▁어디서	-2126
▁어때요	-2127
▁얼마나	-2128
▁엄마가	-2129
▁연애는	-2130
▁예뻐요	-2131
▁왔는데	-2132
▁저도요	-2133
▁집안일	-2134
▁집에서	-2135
▁타는데	-2136
▁편하게	-2137
▁고민하고	-2138
▁사랑해서	-2139
▁썸남한테	-2140
▁어떡하지	-2141
▁연락하는	-2142
▁좋아하고	-2143
▁친구들과	-2144
▁필요하죠	-2145
▁하다보면	-2146
▁했습니다	-2147
▁헤어져야	-2148
▁헷갈리게	-2149
▁흘렀네요	-2150
▁남자친구의	-2151
▁알아보세요	-2152
▁여자친구의	-2153
▁이야기네요	-2154
▁있으니까요	-2155
▁전해보세요	-2156
▁지쳤나봐요	-2157
▁노력해보세요	-2158
▁이해해주세요	-2159
▁잊어버리세요	-2160
▁갚	-2161
▁긍	-2162
▁농	-2163
▁움	-2164
▁죄	-2165
▁창	-2166
▁춥	-2167
▁패	-2168
▁푹	-2169
▁혹	-2170
같이	-2171
남자	-2172
될까	-2173
러워	-2174
려도	-2175
머리	-2176
먹고	-2177
방법	-2178
싶다	-2179
어진	-2180
오는	-2181
이고	-2182
주고	-2183
준비	-2184
할때	-2185
호흡	-2186
▁거지	-2187
▁견뎌	-2188
▁고통	-2189
▁공허	-2190
▁권태	-2191
▁긍정	-2192
▁기울	-2193
▁깨달	-2194
▁꿨어	-2195
▁나올	-2196
▁남았	-2197
▁남을	-2198
▁남의	-2199
▁놀고	-2200
▁놀아	-2201
▁동물	-2202
▁라면	-2203
▁마무	-2204
▁만드	-2205
▁말할	-2206
▁몰라	-2207
▁문득	-2208
▁보일	-2209
▁부럽	-2210
▁분명	-2211
▁사고	-2212
▁사귄	-2213
▁사야	-2214
▁사회	-2215
▁샀어	-2216
▁상태	-2217
▁생활	-2218
▁선톡	-2219
▁시계	-2220
▁실망	-2221
▁쓰는	-2222
▁아까	-2223
▁않게	-2224
▁알았	-2225
▁야경	-2226
▁어서	-2227
▁어장	-2228
▁외로	-2229
▁유지	-2230
▁은근	-2231
▁이건	-2232
▁이럴	-2233
▁이루	-2234
▁인간	-2235
▁전부	-2236
▁정확	-2237
▁줘도	-2238
▁지워	-2239
▁차가	-2240
▁추워	-2241
▁친한	-2242
▁택시	-2243
▁텐데	-2244
▁판단	-2245
▁평소	-2246
▁혹시	-2247
▁화가	-2248
▁희망	-2249
립니다	-2250
었어요	-2251
으니까	-2252
한다면	-2253
해볼까	-2254
▁결정을	-2255
▁그동안	-2256
▁그래서	-2257
▁기념일	-2258
▁남사친	-2259
▁당신도	-2260
▁먹을까	-2261
▁무덤덤	-2262
▁미세먼	-2263
▁변화를	-2264
▁상처가	-2265
▁생겼어	-2266
▁서로의	-2267
▁실감이	-2268
▁심호흡	-2269
▁썸인지	-2270
▁썸타는	-2271
▁아침에	-2272
▁안타깝	-2273
▁언제쯤	-2274
▁없다고	-2275
▁여사친	-2276
▁여행을	-2277
▁연애를	-2278
▁용기가	-2279
▁이유를	-2280
▁인생은	-2281
▁있는게	-2282
▁있지만	-2283
▁잊어야	-2284
▁잘해줘	-2285
▁저한테	-2286
▁지나갔	-2287
▁지내고	-2288
▁짝녀랑	-2289
▁찾아올	-2290
▁필요는	-2291
▁할텐데	-2292
▁해야지	-2293
▁후회가	-2294
였나봐요	-2295
▁가지세요	-2296
▁남자들은	-2297
▁당당하게	-2298
▁만나는게	-2299
▁받아들여	-2300
▁버리세요	-2301
▁사람으로	-2302
▁사랑하지	-2303
▁상대방을	-2304
▁생각나네	-2305
▁생각하지	-2306
▁아니라고	-2307
▁여기까지	-2308
▁이야기를	-2309
▁좋아해도	-2310
▁즐기세요	-2311
▁행복하게	-2312
▁회사에서	-2313
▁결정이었을	-2314
▁무시하세요	-2315
▁않으니까요	-2316
▁여자친구랑	-2317
▁헤어졌는데	-2318
▁기다려보세요	-2319
▁만들어보세요	-2320
▁걔	-2321
▁낮	-2322
▁넣	-2323
▁놔	-2324
▁딴	-2325
▁센	-2326
▁쓴	-2327
▁씻	-2328
▁컨	-2329
▁컴	-2330
거를	-2331
나게	-2332
냐에	-2333
되는	-2334
두고	-2335
디션	-2336
렸어	-2337
리네	-2338
릴까	-2339
스타	-2340
점을	-2341
지로	-2342
치지	-2343
해줄	-2344
했네	-2345
▁가요	-2346
▁거니	-2347
▁계절	-2348
▁공통	-2349
▁그것	-2350
▁길이	-2351
▁깊은	-2352
▁끝난	-2353
▁나왔	-2354
▁나은	-2355
▁놓고	-2356
▁다들	-2357
▁다양	-2358
▁더워	-2359
▁동안	-2360
▁두고	-2361
▁때론	-2362
▁때를	-2363
▁마다	-2364
▁막말	-2365
▁만든	-2366
▁말투	-2367
▁먹었	-2368
▁멈추	-2369
▁반대	-2370
▁봐도	-2371
▁소문	-2372
▁소원	-2373
▁수가	-2374
▁수록	-2375
▁스키	-2376
▁신고	-2377
▁쐬고	-2378
▁아예	-2379
▁안전	-2380
▁울적	-2381
▁원망	-2382
▁음악	-2383
▁이게	-2384
▁있길	-2385
▁자세	-2386
▁조절	-2387
▁중국	-2388
▁지난	-2389
▁진급	-2390
▁짧은	-2391
▁채워	-2392
▁축구	-2393
▁취향	-2394
▁클럽	-2395
▁통보	-2396
▁편한	-2397
▁편할	-2398
▁평생	-2399
▁피할	-2400
▁하게	-2401
▁현금	-2402
▁현재	-2403
버렸어	-2404
일까요	-2405
해주고	-2406
▁가치관	-2407
▁감정에	-2408
▁거겠죠	-2409
▁그녀는	-2410
▁나왔어	-2411
▁됐으면	-2412
▁되기도	-2413
▁됩니다	-2414
▁드라마	-2415
▁똑같은	-2416
▁만난지	-2417
▁많은데	-2418
▁모르고	-2419
▁미안해	-2420
▁방학이	-2421
▁부러워	-2422
▁상대를	-2423
▁생각하	-2424
▁선물이	-2425
▁선택을	-2426
▁시어머	-2427
▁아니면	-2428
▁아프네	-2429
▁안돼요	-2430
▁안하는	-2431
▁애한테	-2432
▁언젠가	-2433
▁없어서	-2434
▁없으면	-2435
▁연락은	-2436
▁운동을	-2437
▁위로가	-2438
▁이겨낼	-2439
▁있겠죠	-2440
▁있겠지	-2441
▁잊혀지	-2442
▁자신에	-2443
▁좋지만	-2444
▁진정한	-2445
▁최고죠	-2446
▁하면서	-2447
▁한달이	-2448
▁행복할	-2449
▁가능성이	-2450
▁달라지는	-2451
▁떨어졌어	-2452
▁말이에요	-2453
▁부러워요	-2454
▁상대방이	-2455
▁생겼는데	-2456
▁아니라면	-2457
▁안됐는데	-2458
▁알면서도	-2459
▁용기내서	-2460
▁이성으로	-2461
▁자존감이	-2462
▁좋아하던	-2463
▁지금처럼	-2464
▁짝사랑이	-2465
▁충분해요	-2466
▁한동안은	-2467
▁힘들어서	-2468
▁힘들었을	-2469
▁방법이에요	-2470
▁부담스럽지	-2471
▁사람들에게	-2472
▁사랑한다면	-2473
▁여자애한테	-2474
▁응원합니다	-2475
▁있을거예요	-2476
▁적극적으로	-2477
▁정리하는게	-2478
▁헤어지자고	-2479
▁준비해보세요	-2480
ns	-2481
▁ᅲ	-2482
▁곁	-2483
▁깎	-2484
▁넌	-2485
▁뛰	-2486
▁맥	-2487
▁밝	-2488
▁악	-2489
▁으	-2490
▁잃	-2491
▁짓	-2492
▁째	-2493
▁찬	-2494
▁케	-2495
▁합	-2496
▁헬	-2497
가네	-2498
가면	-2499
가봐	-2500
간의	-2501
겼어	-2502
데요	-2503
배가	-2504
부를	-2505
수도	-2506
시면	-2507
식이	-2508
아야	-2509
아지	-2510
없어	-2511
울까	-2512
웠어	-2513
이팅	-2514
장고	-2515
전에	-2516
전환	-2517
지를	-2518
통보	-2519
하러	-2520
하루	-2521
sns	-2522
▁각자	-2523
▁갔다	-2524
▁거의	-2525
▁걸릴	-2526
▁것은	-2527
▁결심	-2528
▁골라	-2529
▁곳에	-2530
▁과일	-2531
▁교회	-2532
▁근처	-2533
▁글을	-2534
▁긴장	-2535
▁나면	-2536
▁나쁘	-2537
▁남겨	-2538
▁늦게	-2539
▁단단	-2540
▁달달	-2541
▁당장	-2542
▁두번	-2543
▁둘이	-2544
▁드네	-2545
▁만족	-2546
▁말까	-2547
▁말은	-2548
▁맥주	-2549
▁무리	-2550
▁바꾸	-2551
▁바꿀	-2552
▁밖에	-2553
▁변덕	-2554
▁분이	-2555
▁불행	-2556
▁사용	-2557
▁산책	-2558
▁상사	-2559
▁새로	-2560
▁설렘	-2561
▁셀프	-2562
▁시기	-2563
▁신청	-2564
▁싶네	-2565
▁쓰고	-2566
▁쓸데	-2567
▁아빠	-2568
▁알면	-2569
▁어린	-2570
▁여기	-2571
▁예쁘	-2572
▁오면	-2573
▁올라	-2574
▁왜이	-2575
▁외국	-2576
▁움직	-2577
▁있네	-2578
▁자리	-2579
▁잘생	-2580
▁잘해	-2581
▁전공	-2582
▁전환	-2583
▁제발	-2584
▁중간	-2585
▁진실	-2586
▁집이	-2587
▁초대	-2588
▁최악	-2589
▁태도	-2590
▁페북	-2591
▁하네	-2592
▁화를	-2593
▁휴가	-2594
더라도	-2595
만으로	-2596
싶은데	-2597
어가네	-2598
을지도	-2599
줄게요	-2600
하거나	-2601
하지만	-2602
▁곳에서	-2603
▁공부는	-2604
▁관계를	-2605
▁그렇지	-2606
▁기회가	-2607
▁끝까지	-2608
▁나이는	-2609
▁남자는	-2610
▁내세요	-2611
▁냉장고	-2612
▁느낌이	-2613
▁따뜻한	-2614
▁떨어져	-2615
▁마무리	-2616
▁모습이	-2617
▁물어보	-2618
▁물어봐	-2619
▁뭐하고	-2620
▁믿음이	-2621
▁부족한	-2622
▁사소한	-2623
▁사이가	-2624
▁상관없	-2625
▁생각에	-2626
▁생각은	-2627
▁생각한	-2628
▁선물을	-2629
▁시원한	-2630
▁썸인데	-2631
▁아니야	-2632
▁여자를	-2633
▁온전히	-2634
▁인기가	-2635
▁있다고	-2636
▁정리할	-2637
▁제자리	-2638
▁좋겠지	-2639
▁지났네	-2640
▁진심을	-2641
▁집들이	-2642
▁차분히	-2643
▁최선의	-2644
▁파이팅	-2645
▁표현해	-2646
셨나봐요	-2647
이었으면	-2648
▁고백해도	-2649
▁그렇지만	-2650
▁기분전환	-2651
▁마음으로	-2652
▁무엇이든	-2653
▁부럽네요	-2654
▁부모님이	-2655
▁사랑으로	-2656
▁썸남이랑	-2657
▁아름다운	-2658
▁아프네요	-2659
▁없나봐요	-2660
▁이별통보	-2661
▁일이네요	-2662
▁좋겠지만	-2663
▁좋아해요	-2664
▁중요하죠	-2665
▁피하세요	-2666
▁하루하루	-2667
▁하셨네요	-2668
▁환승이별	-2669
▁힘들겠지	-2670
▁남자친구와	-2671
▁생각이에요	-2672
▁습관이에요	-2673
▁알려주세요	-2674
▁적어보세요	-2675
▁힘들겠네요	-2676
▁고백해보세요	-2677
▁사용해보세요	-2678
▁필요하겠네요	-2679
▁힘들었겠어요	-2680
~~	-2681
ᄒᄒ	-2682
▁9	-2683
▁김	-2684
▁꿀	-2685
▁디	-2686
▁맡	-2687
▁백	-2688
▁벚	-2689
▁블	-2690
▁뽑	-2691
▁숙	-2692
▁싱	-2693
▁콩	-2694
▁푸	-2695
▁핑	-2696
가락	-2697
갈까	-2698
갔어	-2699
규직	-2700
기간	-2701
나면	-2702
달째	-2703
대폰	-2704
도록	-2705
듯이	-2706
래요	-2707
먹기	-2708
무원	-2709
부로	-2710
샤워	-2711
순위	-2712
시락	-2713
았던	-2714
오면	-2715
우면	-2716
유증	-2717
이니	-2718
인이	-2719
장면	-2720
제를	-2721
지게	-2722
포즈	-2723
하던	-2724
혼자	-2725
▁30	-2726
▁간접	-2727
▁겨울	-2728
▁고맙	-2729
▁공시	-2730
▁과거	-2731
▁과식	-2732
▁교양	-2733
▁글로	-2734
▁기술	-2735
▁남아	-2736
▁낫죠	-2737
▁내요	-2738
▁다되	-2739
▁달콤	-2740
▁됐네	-2741
▁떨리	-2742
▁마실	-2743
▁많을	-2744
▁맘에	-2745
▁맘이	-2746
▁맛난	-2747
▁매력	-2748
▁머릿	-2749
▁메뉴	-2750
▁면도	-2751
▁모아	-2752
▁목표	-2753
▁물리	-2754
▁밀당	-2755
▁반지	-2756
▁벚꽃	-2757
▁변명	-2758
▁보기	-2759
▁보니	-2760
▁보험	-2761
▁부딪	-2762
▁부자	-2763
▁빠르	-2764
▁선이	-2765
▁소비	-2766
▁심심	-2767
▁썸의	-2768
▁아껴	-2769
▁아쉬	-2770
▁애정	-2771
▁어찌	-2772
▁오네	-2773
▁오랫	-2774
▁외롭	-2775
▁용돈	-2776
▁용서	-2777
▁이뤄	-2778
▁이불	-2779
▁인기	-2780
▁있게	-2781
▁절약	-2782
▁죽고	-2783
▁중독	-2784
▁지칠	-2785
▁참고	-2786
▁청첩	-2787
▁파혼	-2788
▁편안	-2789
▁풀릴	-2790
▁한다	-2791
▁행운	-2792
▁향수	-2793
▁헬스	-2794
거같아	-2795
된다고	-2796
었으면	-2797
이라고	-2798
이라니	-2799
장에서	-2800
하기는	-2801
하는지	-2802
하다가	-2803
하자고	-2804
할게요	-2805
▁sns	-2806
▁건강에	-2807
▁공무원	-2808
▁관계가	-2809
▁귀여워	-2810
▁극복할	-2811
▁나에게	-2812
▁남자랑	-2813
▁노래방	-2814
▁달라지	-2815
▁도시락	-2816
▁됐는데	-2817
▁드라이	-2818
▁들어가	-2819
▁들어와	-2820
▁모습을	-2821
▁뭐라도	-2822
▁바쁘게	-2823
▁배고파	-2824
▁병원에	-2825
▁보내고	-2826
▁보이고	-2827
▁사귀기	-2828
▁사랑했	-2829
▁살아야	-2830
▁새벽에	-2831
▁선물은	-2832
▁세상에	-2833
▁시간도	-2834
▁시기가	-2835
▁아무렇	-2836
▁아프다	-2837
▁않는데	-2838
▁앞머리	-2839
▁억지로	-2840
▁여자랑	-2841
▁여전히	-2842
▁연애가	-2843
▁우세요	-2844
▁울어도	-2845
▁의사를	-2846
▁인생이	-2847
▁있다는	-2848
▁있어서	-2849
▁있으니	-2850
▁자격이	-2851
▁자신만	-2852
▁전화를	-2853
▁준비를	-2854
▁찾아가	-2855
▁친구의	-2856
▁태어난	-2857
▁표현이	-2858
▁피곤해	-2859
▁혼자만	-2860
▁혼자서	-2861
▁휴대폰	-2862
셔보세요	-2863
시겠어요	-2864
어주세요	-2865
해야할까	-2866
했겠어요	-2867
▁걱정하지	-2868
▁나가세요	-2869
▁내보세요	-2870
▁누군가를	-2871
▁따뜻하게	-2872
▁만나기로	-2873
▁만들어요	-2874
▁맞는걸까	-2875
▁보고싶다	-2876
▁생각하면	-2877
▁솔직하게	-2878
▁스트레칭	-2879
▁싶습니다	-2880
▁않겠지만	-2881
▁없겠네요	-2882
▁여자들은	-2883
▁여자한테	-2884
▁이별에는	-2885
▁잊으세요	-2886
▁잘했어요	-2887
▁점심시간	-2888
▁준비하는	-2889
▁하나봐요	-2890
▁했나봐요	-2891
▁걸어보세요	-2892
▁고백했는데	-2893
▁나눠보세요	-2894
▁남자친구랑	-2895
▁다녀오세요	-2896
▁다르겠지만	-2897
▁돌려보세요	-2898
▁믿어보세요	-2899
▁바쁜가봐요	-2900
▁스스로에게	-2901
▁좋아해주는	-2902
▁지금이라도	-2903
▁친구들이랑	-2904
▁필요하다면	-2905
▁힘든가봅니다	-2906
ᅮᅮ	-2907
▁겁	-2908
▁격	-2909
▁급	-2910
▁깜	-2911
▁꼼	-2912
▁끈	-2913
▁넓	-2914
▁녹	-2915
▁놈	-2916
▁닮	-2917
▁땀	-2918
▁띄	-2919
▁잇	-2920
▁찔	-2921
▁쳐	-2922
▁털	-2923
거죠	-2924
까봐	-2925
나고	-2926
나서	-2927
내는	-2928
냈어	-2929
너무	-2930
년의	-2931
다발	-2932
데이	-2933
되면	-2934
든지	-2935
따라	-2936
라리	-2937
라이	-2938
렌타	-2939
려구	-2940
려나	-2941
린다	-2942
받아	-2943
번호	-2944
보내	-2945
보니	-2946
분이	-2947
빼로	-2948
생숭	-2949
어두	-2950
정도	-2951
주려	-2952
지마	-2953
치기	-2954
터리	-2955
테리	-2956
하긴	-2957
하대	-2958
함을	-2959
▁ᅲᅲ	-2960
▁가도	-2961
▁감성	-2962
▁개강	-2963
▁거면	-2964
▁경쟁	-2965
▁곁에	-2966
▁그는	-2967
▁그대	-2968
▁기원	-2969
▁깨끗	-2970
▁남기	-2971
▁내리	-2972
▁노후	-2973
▁놀랐	-2974
▁눈치	-2975
▁늦은	-2976
▁답장	-2977
▁대출	-2978
▁데는	-2979
▁떠오	-2980
▁맛집	-2981
▁맞추	-2982
▁매달	-2983
▁명절	-2984
▁모른	-2985
▁몰래	-2986
▁못잊	-2987
▁무거	-2988
▁반가	-2989
▁받은	-2990
▁밝혀	-2991
▁버릴	-2992
▁별거	-2993
▁보다	-2994
▁봄이	-2995
▁빠를	-2996
▁사업	-2997
▁살기	-2998
▁삶을	-2999
▁생겨	-3000
▁샤워	-3001
▁성장	-3002
▁속에	-3003
▁수다	-3004
▁술마	-3005
▁술을	-3006
▁심경	-3007
▁싱숭	-3008
▁썸은	-3009
▁썸을	-3010
▁애들	-3011
▁어머	-3012
▁업무	-3013
▁없지	-3014
▁에휴	-3015
▁여름	-3016
▁염색	-3017
▁왔네	-3018
▁외모	-3019
▁유부	-3020
▁은연	-3021
▁의외	-3022
▁이미	-3023
▁인내	-3024
▁입을	-3025
▁잘되	-3026
▁장소	-3027
▁중인	-3028
▁지는	-3029
▁참는	-3030
▁콩깍	-3031
▁통해	-3032
▁투자	-3033
▁핑계	-3034
▁하다	-3035
▁하던	-3036
▁해보	-3037
▁회식	-3038
▁회원	-3039
▁휴식	-3040
▁흐르	-3041
갑니다	-3042
기세요	-3043
내세요	-3044
르세요	-3045
셨네요	-3046
시군요	-3047
왔는데	-3048
을거라	-3049
이었길	-3050
졌으면	-3051
줬는데	-3052
하기도	-3053
하느라	-3054
하는거	-3055
하지는	-3056
▁가끔은	-3057
▁가는데	-3058
▁감정의	-3059
▁거리를	-3060
▁결혼은	-3061
▁고민임	-3062
▁고백을	-3063
▁과정이	-3064
▁그만큼	-3065
▁꽃다발	-3066
▁나보다	-3067
▁나을까	-3068
▁나혼자	-3069
▁남자들	-3070
▁내려놓	-3071
▁너에게	-3072
▁노력하	-3073
▁달라진	-3074
▁답답한	-3075
▁답답해	-3076
▁도와줘	-3077
▁도움을	-3078
▁되는지	-3079
▁마시고	-3080
▁말하지	-3081
▁못해요	-3082
▁받으면	-3083
▁발렌타	-3084
▁배우는	-3085
▁보내는	-3086
▁보이지	-3087
▁복잡한	-3088
▁본인의	-3089
▁부분이	-3090
▁빼빼로	-3091
▁사진을	-3092
▁생겼네	-3093
▁솔직한	-3094
▁쉬어도	-3095
▁습관을	-3096
▁않아서	-3097
▁않을까	-3098
▁알아차	-3099
▁없을까	-3100
▁연애에	-3101
▁완벽한	-3102
▁왔으면	-3103
▁외로운	-3104
▁우리는	-3105
▁위로봇	-3106
▁이러지	-3107
▁이별도	-3108
▁이별에	-3109
▁이어나	-3110
▁이유는	-3111
▁이제야	-3112
▁이해가	-3113
▁인생을	-3114
▁일어났	-3115
▁일하는	-3116
▁있지요	-3117
▁자체가	-3118
▁재미가	-3119
▁정리를	-3120
▁정신차	-3121
▁좋으면	-3122
▁주말에	-3123
▁주말이	-3124
▁주변에	-3125
▁차라리	-3126
▁표현을	-3127
▁해주는	-3128
▁행복은	-3129
▁행복을	-3130
▁헤어질	-3131
▁현실을	-3132
▁현재를	-3133
▁회사는	-3134
겨보세요	-3135
▁가능해요	-3136
▁결혼하면	-3137
▁그녀에게	-3138
▁기다리면	-3139
▁기대세요	-3140
▁노력하는	-3141
▁다르겠죠	-3142
▁다음부터	-3143
▁두근거리	-3144
▁로맨틱한	-3145
▁마련이죠	-3146
▁마음대로	-3147
▁바쁘거나	-3148
▁상대에게	-3149
▁슬프네요	-3150
▁싱숭생숭	-3151
▁써보세요	-3152
▁않나봐요	-3153
▁알다가도	-3154
▁어려워요	-3155
▁어울리는	-3156
▁오랫동안	-3157
▁익숙해지	-3158
▁있었으면	-3159
▁있을까요	-3160
▁있을지도	-3161
▁정리하는	-3162
▁좋아했던	-3163
▁지났네요	-3164
▁직장에서	-3165
▁짝사랑은	-3166
▁타이밍이	-3167
▁프로포즈	-3168
▁해야할까	-3169
▁헤아리는	-3170
▁헤어졌네	-3171
▁헤어지면	-3172
▁헤어지지	-3173
▁현실적인	-3174
▁흔들리지	-3175
▁힘듭니다	-3176
으신가봐요	-3177
인가봅니다	-3178
▁감사합니다	-3179
▁고생했어요	-3180
▁골라보세요	-3181
▁되었습니다	-3182
▁드셔보세요	-3183
▁들어보세요	-3184
▁마련이에요	-3185
▁마지막으로	-3186
▁맞았나봐요	-3187
▁스트레스가	-3188
▁시어머니가	-3189
▁아니니까요	-3190
▁있더라고요	-3191
▁조금이라도	-3192
▁다가가보세요	-3193
▁로맨틱하네요	-3194
▁복잡하겠어요	-3195
▁부탁해보세요	-3196
▁여자친구에게	-3197
▁표현해보세요	-3198
▁A	-3199
▁널	-3200
▁년	-3201
▁늙	-3202
▁땡	-3203
▁봉	-3204
▁섬	-3205
▁씁	-3206
▁얻	-3207
▁옴	-3208
▁왕	-3209
▁왤	-3210
▁웬	-3211
▁젖	-3212
▁짱	-3213
▁폭	-3214
▁형	-3215
▁효	-3216
각이	-3217
걸로	-3218
겹살	-3219
공평	-3220
난다	-3221
답을	-3222
대한	-3223
도가	-3224
럽게	-3225
려서	-3226
만은	-3227
복이	-3228
부여	-3229
분들	-3230
선을	-3231
센터	-3232
셔요	-3233
숙사	-3234
스는	-3235
시원	-3236
었길	-3237
육아	-3238
이스	-3239
있어	-3240
정보	-3241
정을	-3242
제가	-3243
주면	-3244
지기	-3245
쳤어	-3246
통수	-3247
해진	-3248
활동	-3249
히는	-3250
▁가만	-3251
▁간단	-3252
▁감고	-3253
▁같지	-3254
▁걸리	-3255
▁걸어	-3256
▁구멍	-3257
▁귀가	-3258
▁그립	-3259
▁기간	-3260
▁기준	-3261
▁길러	-3262
▁깨요	-3263
▁나지	-3264
▁남은	-3265
▁너도	-3266
▁너를	-3267
▁느낄	-3268
▁다닐	-3269
▁다리	-3270
▁다정	-3271
▁단계	-3272
▁답이	-3273
▁되돌	-3274
▁들고	-3275
▁딸기	-3276
▁똑똑	-3277
▁라고	-3278
▁로또	-3279
▁많지	-3280
▁매너	-3281
▁멀리	-3282
▁멀어	-3283
▁메모	-3284
▁모자	-3285
▁무색	-3286
▁문신	-3287
▁뭐라	-3288
▁바다	-3289
▁반응	-3290
▁받으	-3291
▁보낼	-3292
▁봉사	-3293
▁봤어	-3294
▁비난	-3295
▁비정	-3296
▁비참	-3297
▁빌려	-3298
▁사면	-3299
▁상상	-3300
▁새해	-3301
▁성별	-3302
▁성향	-3303
▁센스	-3304
▁솔로	-3305
▁수는	-3306
▁수면	-3307
▁순수	-3308
▁술이	-3309
▁시키	-3310
▁신뢰	-3311
▁신중	-3312
▁실내	-3313
▁심리	-3314
▁싸워	-3315
▁아플	-3316
▁악몽	-3317
▁애교	-3318
▁어이	-3319
▁에너	-3320
▁여우	-3321
▁연속	-3322
▁왤케	-3323
▁운전	-3324
▁웃을	-3325
▁웬수	-3326
▁은퇴	-3327
▁의심	-3328
▁의욕	-3329
▁이직	-3330
▁인턴	-3331
▁일만	-3332
▁입어	-3333
▁잇몸	-3334
▁있기	-3335
▁자괴	-3336
▁잘지	-3337
▁잤어	-3338
▁적금	-3339
▁정상	-3340
▁주기	-3341
▁지갑	-3342
▁지도	-3343
▁지진	-3344
▁착한	-3345
▁참견	-3346
▁찾는	-3347
▁천재	-3348
▁체육	-3349
▁쳐다	-3350
▁치료	-3351
▁카드	-3352
▁큰일	-3353
▁통화	-3354
▁특별	-3355
▁하시	-3356
▁학생	-3357
▁한거	-3358
▁한숨	-3359
▁해봤	-3360
▁해외	-3361
▁허무	-3362
▁헛헛	-3363
▁후가	-3364
▁후에	-3365
가는데	-3366
개월이	-3367
개월째	-3368
겼는데	-3369
다는건	-3370
더라구	-3371
드리고	-3372
버렸네	-3373
봅시다	-3374
야할까	-3375
었네요	-3376
에게나	-3377
였는데	-3378
을텐데	-3379
이세요	-3380
점에서	-3381
하나봐	-3382
하라고	-3383
해야할	-3384
해하지	-3385
▁가벼운	-3386
▁가족이	-3387
▁강아지	-3388
▁같아서	-3389
▁걱정이	-3390
▁결혼할	-3391
▁고백할	-3392
▁그러고	-3393
▁그럼요	-3394
▁그리운	-3395
▁기숙사	-3396
▁기억이	-3397
▁기회를	-3398
▁끝났어	-3399
▁나만의	-3400
▁나쁘지	-3401
▁나아졌	-3402
▁나아질	-3403
▁나타날	-3404
▁남에게	-3405
▁누구든	-3406
▁눈치가	-3407
▁느끼는	-3408
▁늘어요	-3409
▁단단히	-3410
▁달콤한	-3411
▁당했어	-3412
▁대해서	-3413
▁돌아가	-3414
▁돌아올	-3415
▁두달이	-3416
▁들었어	-3417
▁따뜻할	-3418
▁마시면	-3419
▁만나도	-3420
▁만드는	-3421
▁만들고	-3422
▁많아서	-3423
▁맛나게	-3424
▁머리랑	-3425
▁머릿속	-3426
▁모든걸	-3427
▁모르게	-3428
▁뭐할까	-3429
▁불편해	-3430
▁사랑과	-3431
▁사랑도	-3432
▁사랑하	-3433
▁사야지	-3434
▁사이에	-3435
▁사정이	-3436
▁삼겹살	-3437
▁생기면	-3438
▁성공할	-3439
▁세상은	-3440
▁소화제	-3441
▁시작해	-3442
▁신나는	-3443
▁실수를	-3444
▁싶다고	-3445
▁썸인가	-3446
▁아까워	-3447
▁아니죠	-3448
▁아이돌	-3449
▁아침이	-3450
▁안되네	-3451
▁어떨까	-3452
▁없어도	-3453
▁여유가	-3454
▁여행도	-3455
▁연애로	-3456
▁영화관	-3457
▁오늘이	-3458
▁우연히	-3459
▁위해서	-3460
▁음식을	-3461
▁이루어	-3462
▁자격증	-3463
▁자신감	-3464
▁잘못된	-3465
▁잘못인	-3466
▁전화가	-3467
▁종교가	-3468
▁찾기를	-3469
▁청첩장	-3470
▁컨디션	-3471
▁하고싶	-3472
▁하는건	-3473
▁하늘을	-3474
▁하루도	-3475
▁하자고	-3476
▁현실의	-3477
▁혼자도	-3478
▁회사와	-3479
▁후회는	-3480
▁흐르고	-3481
렸나봐요	-3482
았습니다	-3483
하고싶어	-3484
하시군요	-3485
해야겠지	-3486
▁결혼해도	-3487
▁고백하는	-3488
▁고백하면	-3489
▁공부해서	-3490
▁관심사를	-3491
▁궁금해요	-3492
▁그렇다면	-3493
▁긍정적인	-3494
▁까먹었다	-3495
▁놀러가고	-3496
▁느낌이야	-3497
▁데이트를	-3498
▁드릴게요	-3499
▁마셔야지	-3500
▁말이네요	-3501
▁말해볼까	-3502
▁목소리를	-3503
▁미세먼지	-3504
▁사람들은	-3505
▁생겼으면	-3506
▁세상에서	-3507
▁싫어하는	-3508
▁아니지만	-3509
▁알아보고	-3510
▁어디까지	-3511
▁오늘따라	-3512
▁왔습니다	-3513
▁우선순위	-3514
▁유지하는	-3515
▁의미부여	-3516
▁이번에는	-3517
▁잠수이별	-3518
▁좋아하나	-3519
▁좋았는데	-3520
▁중입니다	-3521
▁줘보세요	-3522
▁짝녀에게	-3523
▁추천해요	-3524
▁해야겠다	-3525
▁해야할지	-3526
▁행복해지	-3527
▁헤어지자	-3528
▁회원정보	-3529
▁관리하세요	-3530
▁괜찮아졌길	-3531
▁기다리는게	-3532
▁다르겠지요	-3533
▁말해주세요	-3534
▁먹어보세요	-3535
▁물어보는게	-3536
▁받아보세요	-3537
▁보내주세요	-3538
▁사랑이네요	-3539
▁생각만해도	-3540
▁생각했는데	-3541
▁소식이네요	-3542
▁아무렇지도	-3543
▁읽어보세요	-3544
▁있나봅니다	-3545
▁좋아하는거	-3546
▁챙겨드세요	-3547
▁취해보세요	-3548
▁사람인가봐요	-3549
▁사랑했나봐요	-3550
▁생각했나봐요	-3551
▁여자친구한테	-3552
▁좋아하나봐요	-3553
▁노력하겠습니다	-3554
▁거기까지인가봐요	-3555
▁검	-3556
▁꽤	-3557
▁끌	-3558
▁끓	-3559
▁낙	-3560
▁니	-3561
▁땅	-3562
▁땐	-3563
▁레	-3564
▁며	-3565
▁브	-3566
▁빈	-3567
▁색	-3568
▁쌩	-3569
▁앉	-3570
▁쟁	-3571
▁짠	-3572
▁쪼	-3573
▁칼	-3574
▁탄	-3575
▁탔	-3576
▁활	-3577
▁휘	-3578
▁흥	-3579
간다	-3580
같지	-3581
기력	-3582
길이	-3583
나나	-3584
나네	-3585
났어	-3586
년간	-3587
년을	-3588
다른	-3589
담을	-3590
도를	-3591
되길	-3592
되지	-3593
드름	-3594
들지	-3595
라우	-3596
란게	-3597
랑이	-3598
렸을	-3599
료가	-3600
리러	-3601
만한	-3602
모습	-3603
비가	-3604
셔야	-3605
소음	-3606
수있	-3607
순간	-3608
스피	-3609
시키	-3610
쓰는	-3611
양이	-3612
였을	-3613
우스	-3614
이래	-3615
인다	-3616
일차	-3617
자를	-3618
장에	-3619
적령	-3620
종일	-3621
주도	-3622
지길	-3623
출발	-3624
침이	-3625
침표	-3626
콜릿	-3627
크닉	-3628
터가	-3629
토닥	-3630
트북	-3631
하철	-3632
호회	-3633
▁15	-3634
▁간사	-3635
▁강렬	-3636
▁거랑	-3637
▁거요	-3638
▁건조	-3639
▁검색	-3640
▁겨우	-3641
▁고칠	-3642
▁공개	-3643
▁그를	-3644
▁그저	-3645
▁기도	-3646
▁길어	-3647
▁깨닫	-3648
▁꿈은	-3649
▁끝도	-3650
▁끝에	-3651
▁끝인	-3652
▁나네	-3653
▁난방	-3654
▁남는	-3655
▁남지	-3656
▁냉정	-3657
▁너는	-3658
▁노는	-3659
▁놀죠	-3660
▁니가	-3661
▁단둘	-3662
▁달려	-3663
▁대리	-3664
▁덜할	-3665
▁덤덤	-3666
▁동성	-3667
▁든든	-3668
▁들이	-3669
▁때로	-3670
▁뛰어	-3671
▁마셨	-3672
▁막혀	-3673
▁말로	-3674
▁맛이	-3675
▁매주	-3676
▁멍청	-3677
▁못했	-3678
▁발목	-3679
▁버티	-3680
▁보게	-3681
▁봐서	-3682
▁부드	-3683
▁비싼	-3684
▁빠져	-3685
▁사겨	-3686
▁사내	-3687
▁살이	-3688
▁살지	-3689
▁상의	-3690
▁생리	-3691
▁서툴	-3692
▁섬유	-3693
▁성숙	-3694
▁세워	-3695
▁셀카	-3696
▁술만	-3697
▁신기	-3698
▁쓰지	-3699
▁아기	-3700
▁아깝	-3701
▁아쉽	-3702
▁알기	-3703
▁애를	-3704
▁약을	-3705
▁약이	-3706
▁어필	-3707
▁언니	-3708
▁오지	-3709
▁올해	-3710
▁와서	-3711
▁위기	-3712
▁유학	-3713
▁유효	-3714
▁의사	-3715
▁일년	-3716
▁입고	-3717
▁입지	-3718
▁있다	-3719
▁잡아	-3720
▁적게	-3721
▁전혀	-3722
▁정류	-3723
▁정의	-3724
▁제게	-3725
▁조건	-3726
▁종일	-3727
▁주식	-3728
▁줄까	-3729
▁줄어	-3730
▁즐겁	-3731
▁지울	-3732
▁지치	-3733
▁참지	-3734
▁책을	-3735
▁철벽	-3736
▁최근	-3737
▁축복	-3738
▁충격	-3739
▁침대	-3740
▁코스	-3741
▁키가	-3742
▁택배	-3743
▁패턴	-3744
▁포근	-3745
▁풀렸	-3746
▁풀어	-3747
▁했나	-3748
▁호의	-3749
▁확신	-3750
▁회복	-3751
▁흔적	-3752
▁흘러	-3753
▁흥미	-3754
라우마	-3755
보아요	-3756
보여요	-3757
야하나	-3758
에서도	-3759
였으면	-3760
유증이	-3761
이예요	-3762
인데이	-3763
인인데	-3764
적이야	-3765
지네요	-3766
하다는	-3767
할거라	-3768
해야죠	-3769
했더니	-3770
했지만	-3771
▁가능한	-3772
▁가능해	-3773
▁가만히	-3774
▁같다고	-3775
▁것처럼	-3776
▁결정은	-3777
▁경험이	-3778
▁계획을	-3779
▁고마워	-3780
▁그녀와	-3781
▁그럴까	-3782
▁그럴만	-3783
▁그렇죠	-3784
▁그분이	-3785
▁기억을	-3786
▁끝나고	-3787
▁남들이	-3788
▁노트북	-3789
▁느껴져	-3790
▁다음에	-3791
▁달달한	-3792
▁답장이	-3793
▁동료가	-3794
▁동호회	-3795
▁됐어요	-3796
▁되는게	-3797
▁될지도	-3798
▁뒤에서	-3799
▁떠나고	-3800
▁마음과	-3801
▁마침표	-3802
▁많으면	-3803
▁말라고	-3804
▁말하고	-3805
▁말해도	-3806
▁말해줘	-3807
▁맞는지	-3808
▁맞을까	-3809
▁멋져요	-3810
▁모든게	-3811
▁모른척	-3812
▁무기력	-3813
▁미련은	-3814
▁바라는	-3815
▁바라지	-3816
▁배우자	-3817
▁번호를	-3818
▁변하는	-3819
▁보는게	-3820
▁보여요	-3821
▁불공평	-3822
▁사는게	-3823
▁살아요	-3824
▁상담을	-3825
▁상대가	-3826
▁새출발	-3827
▁생각날	-3828
▁선물로	-3829
▁소리가	-3830
▁속상해	-3831
▁속에서	-3832
▁순간이	-3833
▁쉬어가	-3834
▁신경을	-3835
▁신경이	-3836
▁썸에서	-3837
▁아니고	-3838
▁아닐까	-3839
▁아름답	-3840
▁아빠가	-3841
▁아직은	-3842
▁아프지	-3843
▁아픔을	-3844
▁아픔의	-3845
▁앞두고	-3846
▁어렵네	-3847
▁없애는	-3848
▁여드름	-3849
▁여자는	-3850
▁여자와	-3851
▁여행가	-3852
▁연습이	-3853
▁영화보	-3854
▁오래된	-3855
▁우리가	-3856
▁우울해	-3857
▁운명이	-3858
▁이해해	-3859
▁인스타	-3860
▁일들이	-3861
▁일부터	-3862
▁일이죠	-3863
▁있을지	-3864
▁잊혀질	-3865
▁자세히	-3866
▁자체로	-3867
▁정도는	-3868
▁정리될	-3869
▁정말로	-3870
▁제주도	-3871
▁좋으시	-3872
▁중국어	-3873
▁증거를	-3874
▁지내는	-3875
▁지하철	-3876
▁차가워	-3877
▁처음에	-3878
▁초콜릿	-3879
▁출퇴근	-3880
▁친구도	-3881
▁키우고	-3882
▁태어났	-3883
▁피크닉	-3884
▁하네요	-3885
▁하려고	-3886
▁하루를	-3887
▁하지만	-3888
▁해야죠	-3889
▁해주고	-3890
▁했어요	-3891
▁확인해	-3892
▁환승은	-3893
▁힘내지	-3894
갈거예요	-3895
개월만에	-3896
이니까요	-3897
하니까요	-3898
하시네요	-3899
▁결혼적령	-3900
▁고백하고	-3901
▁그러게요	-3902
▁기다리지	-3903
▁남자한테	-3904
▁노력하면	-3905
▁답답하네	-3906
▁당연하죠	-3907
▁될거예요	-3908
▁듯합니다	-3909
▁모르는게	-3910
▁무시하는	-3911
▁물어봐요	-3912
▁미친듯이	-3913
▁별로라고	-3914
▁봉사활동	-3915
▁비교하지	-3916
▁빠를수록	-3917
▁사람인데	-3918
▁사랑에는	-3919
▁사이에서	-3920
▁사회생활	-3921
▁상처받지	-3922
▁생각할까	-3923
▁생각해도	-3924
▁성공하길	-3925
▁시원하게	-3926
▁신혼여행	-3927
▁아니네요	-3928
▁안되겠지	-3929
▁안되는데	-3930
▁엄마한테	-3931
▁연락처를	-3932
▁연애하고	-3933
▁이별하고	-3934
▁이제라도	-3935
▁있겠네요	-3936
▁있었나요	-3937
▁잡으세요	-3938
▁전화하는	-3939
▁좋을까요	-3940
▁준비하고	-3941
▁지금보다	-3942
▁취미생활	-3943
▁친구라고	-3944
▁카페에서	-3945
▁트라우마	-3946
▁표현하는	-3947
▁필요했을	-3948
▁하나라도	-3949
▁하루에도	-3950
▁행복해질	-3951
▁헤아리지	-3952
▁헤어짐을	-3953
▁혼자만의	-3954
▁화장하는	-3955
▁후유증이	-3956
▁힘들지요	-3957
▁가능합니다	-3958
▁간접적이든	-3959
▁그랬나봐요	-3960
▁기분전환을	-3961
▁누구에게나	-3962
▁다음부터는	-3963
▁떠나보세요	-3964
▁만남이었길	-3965
▁말씀하세요	-3966
▁맞을거예요	-3967
▁받아들이기	-3968
▁밝혀보세요	-3969
▁버텨보세요	-3970
▁보여주세요	-3971
▁부담스러운	-3972
▁사람이라면	-3973
▁생각해봐요	-3974
▁시작하세요	-3975
▁않았나봐요	-3976
▁억지로라도	-3977
▁이야기해도	-3978
▁정해보세요	-3979
▁좋아했는데	-3980
▁주기적으로	-3981
▁직접적이든	-3982
▁참아보세요	-3983
▁축하합니다	-3984
▁풀어보세요	-3985
▁하지마세요	-3986
▁힘들어하지	-3987
▁기다려주세요	-3988
▁발렌타인데이	-3989
▁사람이니까요	-3990
▁위로봇입니다	-3991
▁필요하겠어요	-3992
▁결정이었을텐데	-3993
▁거기까지였나봐요	-3994
▁곰	-3995
▁곱	-3996
▁광	-3997
▁낚	-3998
▁낳	-3999
▁낼	-4000
▁닫	-4001
▁득	-4002
▁롱	-4003
▁묻	-4004
▁밖	-4005
▁벽	-4006
▁쉴	-4007
▁슈	-4008
▁씨	-4009
▁액	-4010
▁옳	-4011
▁임	-4012
▁찜	-4013
▁찼	-4014
▁황	-4015
▁흑	-4016
거같	-4017
거지	-4018
건데	-4019
겠음	-4020
겨워	-4021
곰히	-4022
관계	-4023
관리	-4024
교통	-4025
근차	-4026
기업	-4027
끄러	-4028
끼리	-4029
났네	-4030
대체	-4031
대회	-4032
도는	-4033
돌아	-4034
돼서	-4035
듯한	-4036
라서	-4037
로리	-4038
만나	-4039
매일	-4040
면증	-4041
바이	-4042
바퀴	-4043
벤트	-4044
상담	-4045
선물	-4046
세포	-4047
수가	-4048
수를	-4049
수증	-4050
심을	-4051
였던	-4052
와서	-4053
와요	-4054
이크	-4055
인상	-4056
작정	-4057
잖아	-4058
저리	-4059
절한	-4060
젯밤	-4061
졌네	-4062
조심	-4063
지런	-4064
지죠	-4065
질방	-4066
짐에	-4067
청소	-4068
카드	-4069
터디	-4070
트업	-4071
트콘	-4072
표현	-4073
하자	-4074
학기	-4075
한잔	-4076
해를	-4077
했길	-4078
행기	-4079
형이	-4080
화가	-4081
히려	-4082
▁20	-4083
▁가늠	-4084
▁가득	-4085
▁가려	-4086
▁가을	-4087
▁갈때	-4088
▁감당	-4089
▁감히	-4090
▁갔어	-4091
▁강습	-4092
▁갖지	-4093
▁거둘	-4094
▁것들	-4095
▁고고	-4096
▁고기	-4097
▁고장	-4098
▁고치	-4099
▁공감	-4100
▁관련	-4101
▁귀를	-4102
▁금연	-4103
▁기프	-4104
▁깊게	-4105
▁깜빡	-4106
▁꾸며	-4107
▁끝날	-4108
▁나누	-4109
▁나빠	-4110
▁낭비	-4111
▁넘어	-4112
▁놀다	-4113
▁누굴	-4114
▁눈썹	-4115
▁느낀	-4116
▁늦어	-4117
▁단순	-4118
▁단호	-4119
▁대답	-4120
▁대우	-4121
▁대중	-4122
▁대체	-4123
▁도망	-4124
▁동감	-4125
▁득템	-4126
▁들리	-4127
▁들을	-4128
▁때려	-4129
▁로봇	-4130
▁막차	-4131
▁많네	-4132
▁많다	-4133
▁말아	-4134
▁말한	-4135
▁망가	-4136
▁맞지	-4137
▁맞춤	-4138
▁매번	-4139
▁먹지	-4140
▁며칠	-4141
▁몇일	-4142
▁모으	-4143
▁무릎	-4144
▁뭐하	-4145
▁바디	-4146
▁밤에	-4147
▁베풀	-4148
▁변해	-4149
▁보름	-4150
▁부부	-4151
▁분노	-4152
▁분들	-4153
▁불타	-4154
▁빠른	-4155
▁빼고	-4156
▁살면	-4157
▁삶의	-4158
▁서류	-4159
▁성덕	-4160
▁성적	-4161
▁성형	-4162
▁소액	-4163
▁소유	-4164
▁소주	-4165
▁속은	-4166
▁수염	-4167
▁수영	-4168
▁수학	-4169
▁쉬어	-4170
▁쉽진	-4171
▁슈퍼	-4172
▁스테	-4173
▁스팸	-4174
▁슬픔	-4175
▁실례	-4176
▁싸움	-4177
▁쌩얼	-4178
▁썸만	-4179
▁썸일	-4180
▁썼어	-4181
▁씻고	-4182
▁아님	-4183
▁아련	-4184
▁아물	-4185
▁아주	-4186
▁안가	-4187
▁안에	-4188
▁알뜰	-4189
▁애석	-4190
▁애틋	-4191
▁어둠	-4192
▁어떠	-4193
▁연휴	-4194
▁예전	-4195
▁오락	-4196
▁오토	-4197
▁온다	-4198
▁올까	-4199
▁옷이	-4200
▁왕따	-4201
▁요구	-4202
▁요금	-4203
▁욕심	-4204
▁우린	-4205
▁운을	-4206
▁웃어	-4207
▁육아	-4208
▁음식	-4209
▁의견	-4210
▁이것	-4211
▁이뻐	-4212
▁이쁜	-4213
▁인공	-4214
▁일단	-4215
▁일에	-4216
▁잃어	-4217
▁입이	-4218
▁자는	-4219
▁자면	-4220
▁자취	-4221
▁잠재	-4222
▁잡는	-4223
▁전세	-4224
▁전역	-4225
▁점은	-4226
▁점이	-4227
▁조용	-4228
▁조차	-4229
▁조카	-4230
▁좋게	-4231
▁좋고	-4232
▁주름	-4233
▁중고	-4234
▁증오	-4235
▁지냈	-4236
▁지키	-4237
▁진지	-4238
▁짧지	-4239
▁찌질	-4240
▁차갑	-4241
▁차례	-4242
▁참아	-4243
▁창업	-4244
▁책임	-4245
▁초기	-4246
▁추석	-4247
▁추운	-4248
▁치고	-4249
▁치맥	-4250
▁치열	-4251
▁치유	-4252
▁키워	-4253
▁타기	-4254
▁타던	-4255
▁탈출	-4256
▁탈퇴	-4257
▁티가	-4258
▁티를	-4259
▁평가	-4260
▁평온	-4261
▁표시	-4262
▁푸는	-4263
▁필름	-4264
▁하든	-4265
▁학점	-4266
▁한강	-4267
▁합격	-4268
▁해낼	-4269
▁했다	-4270
▁허리	-4271
▁형편	-4272
▁혼란	-4273
▁혼술	-4274
▁화내	-4275
▁희생	-4276
▁힘껏	-4277
것같아	-4278
겠는데	-4279
교통을	-4280
근차근	-4281
년만에	-4282
년이란	-4283
되는데	-4284
들에게	-4285
방법을	-4286
봐야지	-4287
생활이	-4288
셨군요	-4289
스러울	-4290
스크림	-4291
스피싱	-4292
시간이	-4293
심으로	-4294
었나봐	-4295
영수증	-4296
우니까	-4297
으려면	-4298
이겠죠	-4299
인건가	-4300
적이고	-4301
적이죠	-4302
졌는데	-4303
지말고	-4304
하더니	-4305
하려는	-4306
할거야	-4307
할까봐	-4308
해주면	-4309
했나봐	-4310
▁가사가	-4311
▁가짐에	-4312
▁각자의	-4313
▁감정은	-4314
▁갔는데	-4315
▁거울을	-4316
▁걱정은	-4317
▁건가요	-4318
▁건강이	-4319
▁걸까요	-4320
▁것들이	-4321
▁견디고	-4322
▁결정할	-4323
▁경우가	-4324
▁경우도	-4325
▁계절이	-4326
▁고맙다	-4327
▁곰곰히	-4328
▁괴로워	-4329
▁괴롭게	-4330
▁군침이	-4331
▁궁금할	-4332
▁권태기	-4333
▁귀엽게	-4334
▁그러는	-4335
▁그분의	-4336
▁기간이	-4337
▁기대가	-4338
▁기분은	-4339
▁길에서	-4340
▁끝났네	-4341
▁나가기	-4342
▁낫겠지	-4343
▁내일도	-4344
▁너무나	-4345
▁넘었네	-4346
▁노래를	-4347
▁놀아줘	-4348
▁누구도	-4349
▁능력을	-4350
▁당연히	-4351
▁대화가	-4352
▁더러워	-4353
▁도네요	-4354
▁도대체	-4355
▁도와주	-4356
▁도전해	-4357
▁되겠지	-4358
▁두근거	-4359
▁두번째	-4360
▁드시고	-4361
▁듣는데	-4362
▁떠보는	-4363
▁뜻대로	-4364
▁마주쳐	-4365
▁마주치	-4366
▁만나길	-4367
▁만나러	-4368
▁만남과	-4369
▁만남이	-4370
▁말투가	-4371
▁맛있을	-4372
▁망했어	-4373
▁머리는	-4374
▁멋지게	-4375
▁모아서	-4376
▁못하면	-4377
▁무거워	-4378
▁무엇을	-4379
▁무작정	-4380
▁문제는	-4381
▁문제로	-4382
▁미래에	-4383
▁바쁘면	-4384
▁방법을	-4385
▁배우면	-4386
▁버려야	-4387
▁변하지	-4388
▁별로야	-4389
▁보면서	-4390
▁보아요	-4391
▁보이는	-4392
▁부딪혔	-4393
▁부지런	-4394
▁불면증	-4395
▁비행기	-4396
▁사귀면	-4397
▁사람만	-4398
▁살면서	-4399
▁상처는	-4400
▁새학기	-4401
▁생리통	-4402
▁서로가	-4403
▁선배가	-4404
▁성공을	-4405
▁소식이	-4406
▁소심해	-4407
▁술먹고	-4408
▁쉬어야	-4409
▁스터디	-4410
▁시간에	-4411
▁시간표	-4412
▁실수할	-4413
▁싫다고	-4414
▁심경의	-4415
▁싸우면	-4416
▁아닌거	-4417
▁아프고	-4418
▁아픔이	-4419
▁안경테	-4420
▁안녕히	-4421
▁않지만	-4422
▁알았어	-4423
▁약속을	-4424
▁양해를	-4425
▁얘기를	-4426
▁어디로	-4427
▁어젯밤	-4428
▁언제든	-4429
▁얼굴이	-4430
▁없겠지	-4431
▁없는게	-4432
▁없지만	-4433
▁영원한	-4434
▁오히려	-4435
▁월급이	-4436
▁월요일	-4437
▁의미가	-4438
▁의미를	-4439
▁의외로	-4440
▁의욕이	-4441
▁이벤트	-4442
▁이해할	-4443
▁인상이	-4444
▁일어날	-4445
▁있는거	-4446
▁있어야	-4447
▁자괴감	-4448
▁자기도	-4449
▁자신과	-4450
▁자존감	-4451
▁잘해야	-4452
▁재회를	-4453
▁접어두	-4454
▁정규직	-4455
▁좋아질	-4456
▁준비중	-4457
▁중요할	-4458
▁지겨워	-4459
▁지나간	-4460
▁진심이	-4461
▁집중이	-4462
▁집착해	-4463
▁짜장면	-4464
▁찜질방	-4465
▁차이가	-4466
▁찾아오	-4467
▁첫인상	-4468
▁최근에	-4469
▁최대한	-4470
▁최선을	-4471
▁추억은	-4472
▁치과에	-4473
▁커피향	-4474
▁타다가	-4475
▁태어나	-4476
▁택시비	-4477
▁터놓고	-4478
▁퇴근길	-4479
▁특별한	-4480
▁파먹기	-4481
▁피부가	-4482
▁하거나	-4483
▁하루가	-4484
▁하루에	-4485
▁학원을	-4486
▁행동이	-4487
▁화이트	-4488
▁회사에	-4489
▁휴가가	-4490
▁휴식을	-4491
▁흥미를	-4492
▁힘든데	-4493
▁힘들고	-4494
되겠네요	-4495
버리세요	-4496
야하는데	-4497
었겠네요	-4498
었습니다	-4499
왔습니다	-4500
의하세요	-4501
▁가능할까	-4502
▁고민하게	-4503
▁고쳐쓰는	-4504
▁공부하기	-4505
▁공허함이	-4506
▁괜찮다면	-4507
▁괜찮지만	-4508
▁그럴지도	-4509
▁그만하고	-4510
▁기프트콘	-4511
▁깨끗하게	-4512
▁끝났으면	-4513
▁나을지도	-4514
▁나한테만	-4515
▁남사친이	-4516
▁노력하고	-4517
▁다가가는	-4518
▁다양하게	-4519
▁당신에게	-4520
▁돌아가고	-4521
▁드라이브	-4522
▁만들려고	-4523
▁말해봐요	-4524
▁맛있어요	-4525
▁매일매일	-4526
▁먹었는데	-4527
▁물어보고	-4528
▁받아보는	-4529
▁부드럽게	-4530
▁비밀번호	-4531
▁사귀어도	-4532
▁사랑받고	-4533
▁사랑하기	-4534
▁사보세요	-4535
▁사이인데	-4536
▁상대방도	-4537
▁생각나고	-4538
▁선생님이	-4539
▁세상에는	-4540
▁센스있는	-4541
▁셀프웨딩	-4542
▁소개시켜	-4543
▁스타트업	-4544
▁시작해도	-4545
▁신경쓰는	-4546
▁실수하지	-4547
▁싫어하지	-4548
▁싸우면서	-4549
▁아니라는	-4550
▁않겠어요	-4551
▁애정표현	-4552
▁언제까지	-4553
▁얼마든지	-4554
▁여자들이	-4555
▁연락해서	-4556
▁오락가락	-4557
▁오토바이	-4558
▁운동으로	-4559
▁응원해요	-4560
▁의미있는	-4561
▁이기적인	-4562
▁이야기해	-4563
▁익숙해질	-4564
▁인정받고	-4565
▁잊는다는	-4566
▁전남친이	-4567
▁좋습니다	-4568
▁좋아하지	-4569
▁지나갔길	-4570
▁진정으로	-4571
▁집안일을	-4572
▁집착하는	-4573
▁차근차근	-4574
▁차리세요	-4575
▁차분하게	-4576
▁처음부터	-4577
▁처음에는	-4578
▁첫사랑이	-4579
▁체육대회	-4580
▁추억으로	-4581
▁추천해줘	-4582
▁포기하는	-4583
▁하루종일	-4584
▁학교에서	-4585
▁행복하길	-4586
▁행복할까	-4587
▁혼자서도	-4588
▁회사에는	-4589
▁힘들지도	-4590
드려보세요	-4591
했나봅니다	-4592
▁꾸며보세요	-4593
▁달라지는게	-4594
▁대중교통을	-4595
▁되었나봐요	-4596
▁들여보세요	-4597
▁마음이라도	-4598
▁많은가봐요	-4599
▁못했나봐요	-4600
▁벗어나세요	-4601
▁보이스피싱	-4602
▁붙여보세요	-4603
▁빌려보세요	-4604
▁사랑한다는	-4605
▁사랑할수록	-4606
▁상관없어요	-4607
▁선택일거라	-4608
▁스트레칭을	-4609
▁습관이네요	-4610
▁신고하세요	-4611
▁심하겠네요	-4612
▁심한가봐요	-4613
▁아니랍니다	-4614
▁아닌가봐요	-4615
▁아이스크림	-4616
▁안녕하세요	-4617
▁안타깝네요	-4618
▁않을거예요	-4619
▁올려달라고	-4620
▁웃어보세요	-4621
▁재미있어요	-4622
▁정류장에서	-4623
▁좋아한다고	-4624
▁준비하세요	-4625
▁줄여보세요	-4626
▁집중하세요	-4627
▁청해보세요	-4628
▁추천합니다	-4629
▁충전하세요	-4630
▁헤어지는게	-4631
▁헤어지세요	-4632
▁현금영수증	-4633
▁화이트데이	-4634
▁힘들거예요	-4635
▁걱정되겠네요	-4636
▁남자친구한테	-4637
▁시간이겠네요	-4638
▁연습해보세요	-4639
▁예민한가봐요	-4640
▁이별했습니다	-4641
▁이용해주세요	-4642
▁정리해보세요	-4643
▁좋아할거예요	-4644
▁피곤한가봐요	-4645
▁필요한가봐요	-4646
▁힘드신가봐요	-4647
▁두근거리겠어요	-4648
▁부지런하시네요	-4649
▁심호흡해보세요	-4650
.?	-4651
ᄏᄏ	-4652
▁긁	-4653
▁꾹	-4654
▁끼	-4655
▁뉴	-4656
▁덕	-4657
▁떡	-4658
▁똥	-4659
▁랜	-4660
▁밑	-4661
▁밟	-4662
▁북	-4663
▁빚	-4664
▁빵	-4665
▁삐	-4666
▁승	-4667
▁씌	-4668
▁엉	-4669
▁엮	-4670
▁옥	-4671
▁왠	-4672
▁쪽	-4673
▁쫌	-4674
▁층	-4675
▁켜	-4676
▁쿨	-4677
▁탓	-4678
▁팀	-4679
▁퍼	-4680
▁헌	-4681
▁훈	-4682
갔네	-4683
걸요	-4684
게임	-4685
고가	-4686
김에	-4687
나가	-4688
난거	-4689
난히	-4690
냐구	-4691
노래	-4692
능에	-4693
다리	-4694
달콩	-4695
담화	-4696
동산	-4697
되기	-4698
두절	-4699
드가	-4700
드시	-4701
레스	-4702
력은	-4703
련만	-4704
롭게	-4705
르네	-4706
모가	-4707
무게	-4708
문이	-4709
버려	-4710
버리	-4711
버시	-4712
봤어	-4713
분간	-4714
사는	-4715
사에	-4716
살이	-4717
생각	-4718
서야	-4719
셨나	-4720
수저	-4721
숭숭	-4722
식에	-4723
심한	-4724
쏟아	-4725
았네	-4726
았다	-4727
연제	-4728
였나	-4729
오를	-4730
와의	-4731
왔네	-4732
우는	-4733
우니	-4734
웠을	-4735
으려	-4736
으며	-4737
은거	-4738
을때	-4739
의금	-4740
있나	-4741
있음	-4742
있지	-4743
저분	-4744
정리	-4745
조절	-4746
조차	-4747
주째	-4748
줘야	-4749
증을	-4750
진다	-4751
질이	-4752
참고	-4753
카락	-4754
트가	-4755
플라	-4756
하실	-4757
한번	-4758
히네	-4759
힌다	-4760
▁ᄒᄒ	-4761
▁가라	-4762
▁가볍	-4763
▁가스	-4764
▁간식	-4765
▁감수	-4766
▁감싸	-4767
▁갚아	-4768
▁개념	-4769
▁거는	-4770
▁걸려	-4771
▁걸린	-4772
▁것만	-4773
▁격려	-4774
▁경제	-4775
▁곳을	-4776
▁괜한	-4777
▁괴로	-4778
▁구분	-4779
▁구속	-4780
▁그가	-4781
▁기댈	-4782
▁길게	-4783
▁길은	-4784
▁김치	-4785
▁꺼내	-4786
▁꼼꼼	-4787
▁꿈같	-4788
▁끄는	-4789
▁끓여	-4790
▁끝낼	-4791
▁끝일	-4792
▁나날	-4793
▁나약	-4794
▁낚시	-4795
▁남길	-4796
▁낭만	-4797
▁내게	-4798
▁내기	-4799
▁내내	-4800
▁높아	-4801
▁눈은	-4802
▁능력	-4803
▁늦는	-4804
▁늦잠	-4805
▁다짐	-4806
▁다툼	-4807
▁단톡	-4808
▁담긴	-4809
▁더욱	-4810
▁돈은	-4811
▁되기	-4812
▁듣기	-4813
▁들까	-4814
▁들려	-4815
▁들면	-4816
▁등산	-4817
▁등을	-4818
▁떠났	-4819
▁떨쳐	-4820
▁랜선	-4821
▁리폼	-4822
▁만에	-4823
▁맘을	-4824
▁맞나	-4825
▁먹으	-4826
▁먼지	-4827
▁면허	-4828
▁명품	-4829
▁모를	-4830
▁모쏠	-4831
▁모임	-4832
▁목이	-4833
▁몸에	-4834
▁무관	-4835
▁무의	-4836
▁무한	-4837
▁물건	-4838
▁뭐임	-4839
▁미용	-4840
▁미칠	-4841
▁미화	-4842
▁바늘	-4843
▁바지	-4844
▁반갑	-4845
▁받기	-4846
▁방문	-4847
▁배울	-4848
▁버리	-4849
▁번씩	-4850
▁벌고	-4851
▁벽에	-4852
▁변한	-4853
▁보단	-4854
▁보며	-4855
▁복전	-4856
▁봄은	-4857
▁부디	-4858
▁부여	-4859
▁불금	-4860
▁비하	-4861
▁빠졌	-4862
▁빨래	-4863
▁뽑기	-4864
▁사냐	-4865
▁사탕	-4866
▁살찐	-4867
▁상메	-4868
▁서툰	-4869
▁설렜	-4870
▁설명	-4871
▁세월	-4872
▁손에	-4873
▁손톱	-4874
▁손해	-4875
▁수상	-4876
▁수업	-4877
▁수준	-4878
▁술은	-4879
▁숨막	-4880
▁슬쩍	-4881
▁시골	-4882
▁시도	-4883
▁식단	-4884
▁신발	-4885
▁심어	-4886
▁썸인	-4887
▁쓸쓸	-4888
▁씁쓸	-4889
▁아마	-4890
▁아팠	-4891
▁안주	-4892
▁알지	-4893
▁알콩	-4894
▁애기	-4895
▁양말	-4896
▁어깨	-4897
▁어른	-4898
▁어리	-4899
▁염탐	-4900
▁예감	-4901
▁올랐	-4902
▁옷을	-4903
▁와닿	-4904
▁왜그	-4905
▁요리	-4906
▁웃겨	-4907
▁유행	-4908
▁은행	-4909
▁이모	-4910
▁이틀	-4911
▁일반	-4912
▁읽씹	-4913
▁입에	-4914
▁있음	-4915
▁자도	-4916
▁작아	-4917
▁잔인	-4918
▁잘살	-4919
▁잘자	-4920
▁쟁취	-4921
▁적어	-4922
▁적이	-4923
▁전기	-4924
▁전해	-4925
▁제안	-4926
▁좋으	-4927
▁주차	-4928
▁주택	-4929
▁지낼	-4930
▁지루	-4931
▁지옥	-4932
▁진행	-4933
▁질질	-4934
▁짐을	-4935
▁집앞	-4936
▁짧게	-4937
▁찍고	-4938
▁착잡	-4939
▁참석	-4940
▁참을	-4941
▁처럼	-4942
▁첫눈	-4943
▁추스	-4944
▁층간	-4945
▁치매	-4946
▁치워	-4947
▁컴퓨	-4948
▁코가	-4949
▁타다	-4950
▁털어	-4951
▁특징	-4952
▁틀린	-4953
▁티내	-4954
▁편의	-4955
▁포장	-4956
▁표정	-4957
▁피자	-4958
▁한가	-4959
▁한계	-4960
▁한국	-4961
▁한창	-4962
▁한켠	-4963
▁할줄	-4964
▁해줄	-4965
▁호칭	-4966
▁흑역	-4967
거겠죠	-4968
겠다고	-4969
끄러워	-4970
납니다	-4971
냈어요	-4972
년연애	-4973
느냐에	-4974
데이트	-4975
라는게	-4976
릅니다	-4977
받았어	-4978
보다는	-4979
생인데	-4980
셔야죠	-4981
식하는	-4982
신가요	-4983
았으면	-4984
었나요	-4985
유연제	-4986
이라서	-4987
인걸까	-4988
인데요	-4989
정적인	-4990
지세요	-4991
집니다	-4992
터리가	-4993
테리어	-4994
하겠지	-4995
한건가	-4996
해졌어	-4997
해주지	-4998
했네요	-4999
....	-5000
▁가까운	-5001
▁강렬한	-5002
▁거라고	-5003
▁거절의	-5004
▁걱정할	-5005
▁것들을	-5006
▁게임을	-5007
▁고마운	-5008
▁고백은	-5009
▁고치고	-5010
▁공부할	-5011
▁그러게	-5012
▁그리울	-5013
▁그리움	-5014
▁긁었어	-5015
▁금수저	-5016
▁기다렸	-5017
▁기다림	-5018
▁기대를	-5019
▁기본이	-5020
▁기억의	-5021
▁끝내고	-5022
▁끝인가	-5023
▁나가야	-5024
▁나갔어	-5025
▁남자도	-5026
▁너한테	-5027
▁누구랑	-5028
▁눈에서	-5029
▁다가오	-5030
▁다르죠	-5031
▁단둘이	-5032
▁달려있	-5033
▁당분간	-5034
▁당연한	-5035
▁대화로	-5036
▁되는거	-5037
▁뒤숭숭	-5038
▁뒤통수	-5039
▁뒷담화	-5040
▁드리고	-5041
▁드시면	-5042
▁들어도	-5043
▁들어서	-5044
▁들어올	-5045
▁들어줄	-5046
▁들으면	-5047
▁때문일	-5048
▁때예요	-5049
▁똑같아	-5050
▁마셔도	-5051
▁마실까	-5052
▁마음만	-5053
▁만나요	-5054
▁만나자	-5055
▁만남에	-5056
▁말했어	-5057
▁망했다	-5058
▁맞는거	-5059
▁맞아요	-5060
▁맞춤법	-5061
▁매력이	-5062
▁먹었어	-5063
▁먹자고	-5064
▁먼지가	-5065
▁멀어진	-5066
▁목소리	-5067
▁몸무게	-5068
▁못참고	-5069
▁못해서	-5070
▁못했던	-5071
▁물리적	-5072
▁뭐하는	-5073
▁미끄러	-5074
▁미련도	-5075
▁믿음을	-5076
▁바꿀까	-5077
▁바뀌게	-5078
▁바르고	-5079
▁바빠도	-5080
▁바빠서	-5081
▁밖에서	-5082
▁반응이	-5083
▁받아야	-5084
▁배고프	-5085
▁버텨요	-5086
▁베터리	-5087
▁보냈어	-5088
▁보자고	-5089
▁볼게요	-5090
▁봤는데	-5091
▁부탁드	-5092
▁빌어요	-5093
▁빠지는	-5094
▁뻔했어	-5095
▁사겨도	-5096
▁사귀던	-5097
▁사라질	-5098
▁살아가	-5099
▁상사가	-5100
▁상처도	-5101
▁서운해	-5102
▁서툴러	-5103
▁선에서	-5104
▁선택할	-5105
▁선톡을	-5106
▁세상이	-5107
▁소원을	-5108
▁속도를	-5109
▁슬프게	-5110
▁습관이	-5111
▁시계는	-5112
▁신경써	-5113
▁싫어도	-5114
▁심장이	-5115
▁싶다는	-5116
▁싸우는	-5117
▁아무말	-5118
▁아픔은	-5119
▁안하지	-5120
▁않는게	-5121
▁어디든	-5122
▁어려울	-5123
▁어렵죠	-5124
▁어렸을	-5125
▁어리게	-5126
▁어제와	-5127
▁어쩔수	-5128
▁없는거	-5129
▁여자도	-5130
▁여행은	-5131
▁연락오	-5132
▁연락할	-5133
▁연애의	-5134
▁연인은	-5135
▁옆에서	-5136
▁예민한	-5137
▁오빠가	-5138
▁요즘은	-5139
▁우리집	-5140
▁유난히	-5141
▁유부남	-5142
▁이기적	-5143
▁이름이	-5144
▁인연은	-5145
▁입어도	-5146
▁있었을	-5147
▁잘못을	-5148
▁잘못이	-5149
▁재밌는	-5150
▁재밌다	-5151
▁재밌어	-5152
▁재회는	-5153
▁정도로	-5154
▁존재를	-5155
▁좋을지	-5156
▁좋지요	-5157
▁주면서	-5158
▁주제를	-5159
▁줄어들	-5160
▁지나가	-5161
▁지나면	-5162
▁지내길	-5163
▁지르고	-5164
▁지우고	-5165
▁지저분	-5166
▁짜증날	-5167
▁차갑게	-5168
▁차별해	-5169
▁차이는	-5170
▁찾아온	-5171
▁추억에	-5172
▁축의금	-5173
▁친구네	-5174
▁친구는	-5175
▁친구와	-5176
▁친해지	-5177
▁친해질	-5178
▁카톡을	-5179
▁카톡이	-5180
▁편하고	-5181
▁평소에	-5182
▁프라이	-5183
▁프로필	-5184
▁피해를	-5185
▁하기도	-5186
▁하는지	-5187
▁하다가	-5188
▁하우스	-5189
▁한다는	-5190
▁한숨만	-5191
▁함께한	-5192
▁함께할	-5193
▁함부로	-5194
▁해보고	-5195
▁해야돼	-5196
▁해야할	-5197
▁행운을	-5198
▁현실과	-5199
▁혼자인	-5200
▁화장품	-5201
▁후회를	-5202
▁휴가를	-5203
▁힘든거	-5204
러보세요	-5205
뿐이에요	-5206
셨겠어요	-5207
시겠네요	-5208
지겠네요	-5209
테니까요	-5210
해야겠다	-5211
해야하는	-5212
해지세요	-5213
▁가능하면	-5214
▁가야겠죠	-5215
▁가치관이	-5216
▁거르세요	-5217
▁것입니다	-5218
▁결정이었	-5219
▁관리하는	-5220
▁권태기가	-5221
▁그대로의	-5222
▁기대하지	-5223
▁기억에서	-5224
▁나가볼까	-5225
▁나아졌길	-5226
▁낭비하지	-5227
▁놀이동산	-5228
▁달라진게	-5229
▁대화하는	-5230
▁도전하는	-5231
▁두려움을	-5232
▁두셨네요	-5233
▁들어왔어	-5234
▁떠오르는	-5235
▁마음정리	-5236
▁마주치는	-5237
▁만나는데	-5238
▁만들어서	-5239
▁맞추세요	-5240
▁머리카락	-5241
▁먹으면서	-5242
▁모르겠네	-5243
▁못하는게	-5244
▁물어보면	-5245
▁미워하지	-5246
▁미치겠네	-5247
▁미치겠어	-5248
▁믿으세요	-5249
▁받아들일	-5250
▁보고싶네	-5251
▁보이네요	-5252
▁비난하지	-5253
▁사랑해요	-5254
▁살다보면	-5255
▁상대방에	-5256
▁생각으로	-5257
▁생각해서	-5258
▁생겼네요	-5259
▁생일이네	-5260
▁서류에서	-5261
▁선택이길	-5262
▁성공하고	-5263
▁수학여행	-5264
▁시작이죠	-5265
▁시작하기	-5266
▁신경쓰여	-5267
▁신중하게	-5268
▁심호흡을	-5269
▁쓰레기야	-5270
▁아는데도	-5271
▁아니었을	-5272
▁아닌가요	-5273
▁알콩달콩	-5274
▁어떻게든	-5275
▁어떻게해	-5276
▁언젠가는	-5277
▁없겠지요	-5278
▁여사친이	-5279
▁연락두절	-5280
▁연애하는	-5281
▁연애하면	-5282
▁연인으로	-5283
▁오늘부터	-5284
▁왔나봐요	-5285
▁운명적인	-5286
▁이별이란	-5287
▁이별준비	-5288
▁이상형은	-5289
▁이상형이	-5290
▁이어나가	-5291
▁인생이죠	-5292
▁인정하고	-5293
▁일어나는	-5294
▁일어나서	-5295
▁있었는데	-5296
▁있으니까	-5297
▁있을게요	-5298
▁잊으려고	-5299
▁잊혀지지	-5300
▁자신으로	-5301
▁자유로워	-5302
▁자존감을	-5303
▁잘하는게	-5304
▁잘해주는	-5305
▁재미없어	-5306
▁재미있게	-5307
▁적응해야	-5308
▁정리하고	-5309
▁정확하게	-5310
▁좋았으면	-5311
▁좋으련만	-5312
▁주변에서	-5313
▁주식으로	-5314
▁중요한데	-5315
▁즐기면서	-5316
▁짝남에게	-5317
▁짝사랑을	-5318
▁층간소음	-5319
▁카톡으로	-5320
▁콩깍지가	-5321
▁퇴근하고	-5322
▁편하겠죠	-5323
▁필요한게	-5324
▁한달하고	-5325
▁해외여행	-5326
▁헤어지기	-5327
▁헤어지는	-5328
▁헤어짐이	-5329
▁후폭풍은	-5330
▁후회하기	-5331
▁후회해도	-5332
▁힘들었죠	-5333
담해보세요	-5334
었으니까요	-5335
하신가봐요	-5336
▁가능하겠죠	-5337
▁걱정된다고	-5338
▁걸리겠지만	-5339
▁결혼하는데	-5340
▁과정이에요	-5341
▁구해보세요	-5342
▁기원합니다	-5343
▁남았나봐요	-5344
▁남자애한테	-5345
▁남자친구를	-5346
▁대해보세요	-5347
▁두려워하지	-5348
▁들어주세요	-5349
▁맞춰보세요	-5350
▁맡겨보세요	-5351
▁먹어야겠다	-5352
▁미세먼지가	-5353
▁바꿔보세요	-5354
▁사과하세요	-5355
▁삭제하세요	-5356
▁상대방에게	-5357
▁상황이네요	-5358
▁섬유유연제	-5359
▁순간이네요	-5360
▁순간이었을	-5361
▁아름다워요	-5362
▁애매하네요	-5363
▁없을거예요	-5364
▁여자친구를	-5365
▁연락해볼까	-5366
▁연락했는데	-5367
▁연애하는데	-5368
▁외국인인데	-5369
▁이겨내세요	-5370
▁잃어버렸어	-5371
▁잊혀지기도	-5372
▁잘해주세요	-5373
▁좋아한다는	-5374
▁좋아했으면	-5375
▁좋을텐데요	-5376
▁큰일이네요	-5377
▁프라이버시	-5378
▁하고싶었던	-5379
▁힘든가봐요	-5380
이었나봅니다	-5381
▁남자친구에게	-5382
▁당황했겠어요	-5383
▁마음인가봐요	-5384
▁마주쳐보세요	-5385
▁미치겠습니다	-5386
▁어필해보세요	-5387
▁인정해주세요	-5388
▁있으신가봐요	-5389
▁전화해보세요	-5390
▁좋아해줬으면	-5391
▁필요하다면요	-5392
▁부담스러워하지	-5393
,,	-5394
00	-5395
as	-5396
▁'	-5397
▁객	-5398
▁갠	-5399
▁겪	-5400
▁국	-5401
▁굳	-5402
▁굴	-5403
▁꼰	-5404
▁꽉	-5405
▁둔	-5406
▁뒹	-5407
▁뚫	-5408
▁라	-5409
▁렌	-5410
▁맴	-5411
▁맺	-5412
▁멘	-5413
▁몫	-5414
▁민	-5415
▁밉	-5416
▁뱃	-5417
▁벅	-5418
▁뻑	-5419
▁샌	-5420
▁씹	-5421
▁엇	-5422
▁엠	-5423
▁웹	-5424
▁윗	-5425
▁좌	-5426
▁쫄	-5427
▁찢	-5428
▁컸	-5429
▁콕	-5430
▁킁	-5431
▁탁	-5432
▁팍	-5433
▁품	-5434
▁핫	-5435
▁햇	-5436
▁험	-5437
▁훔	-5438
가가	-5439
가기	-5440
가능	-5441
가의	-5442
감당	-5443
강에	-5444
같애	-5445
걸음	-5446
게되	-5447
겠대	-5448
고있	-5449
공원	-5450
구경	-5451
구를	-5452
그만	-5453
극히	-5454
기에	-5455
기지	-5456
긴다	-5457
길만	-5458
꺼야	-5459
꼬박	-5460
네여	-5461
달이	-5462
대는	-5463
독한	-5464
드네	-5465
드위	-5466
듬어	-5467
라네	-5468
라니	-5469
랬다	-5470
런지	-5471
렀어	-5472
력서	-5473
력에	-5474
로그	-5475
르기	-5476
르지	-5477
름이	-5478
리죠	-5479
리필	-5480
린라	-5481
림을	-5482
마요	-5483
마자	-5484
만해	-5485
맛도	-5486
맛이	-5487
맥이	-5488
명한	-5489
문을	-5490
물을	-5491
밖은	-5492
받는	-5493
받을	-5494
발을	-5495
버린	-5496
보네	-5497
부의	-5498
뻑해	-5499
서와	-5500
설여	-5501
소리	-5502
속에	-5503
수업	-5504
스트	-5505
시피	-5506
신발	-5507
쎄요	-5508
아리	-5509
아빠	-5510
안녕	-5511
야해	-5512
양말	-5513
양제	-5514
없네	-5515
에만	-5516
역이	-5517
였네	-5518
영상	-5519
오래	-5520
온다	-5521
올라	-5522
올려	-5523
왔다	-5524
우고	-5525
우지	-5526
운데	-5527
울렛	-5528
은것	-5529
이너	-5530
인줄	-5531
정녀	-5532
져서	-5533
조건	-5534
주일	-5535
지못	-5536
지부	-5537
지우	-5538
질뻔	-5539
질제	-5540
쪄도	-5541
찰텐	-5542
처리	-5543
총회	-5544
촬영	-5545
콜록	-5546
터넷	-5547
테니	-5548
트남	-5549
트롤	-5550
티콘	-5551
프터	-5552
하며	-5553
하진	-5554
학금	-5555
한건	-5556
함에	-5557
해가	-5558
했나	-5559
향을	-5560
헤어	-5561
▁12	-5562
▁AS	-5563
▁as	-5564
▁가게	-5565
▁간대	-5566
▁간직	-5567
▁감동	-5568
▁감출	-5569
▁강요	-5570
▁강제	-5571
▁갖게	-5572
▁같다	-5573
▁같음	-5574
▁개시	-5575
▁객관	-5576
▁갠톡	-5577
▁걔는	-5578
▁걷고	-5579
▁걷길	-5580
▁골프	-5581
▁공유	-5582
▁과연	-5583
▁구두	-5584
▁구별	-5585
▁구워	-5586
▁군인	-5587
▁귀로	-5588
▁그걸	-5589
▁그때	-5590
▁그땐	-5591
▁글자	-5592
▁길면	-5593
▁길지	-5594
▁깎아	-5595
▁꼬박	-5596
▁꼰대	-5597
▁꾹꾹	-5598
▁끈을	-5599
▁끝냈	-5600
▁나나	-5601
▁나니	-5602
▁나야	-5603
▁남과	-5604
▁남들	-5605
▁낮잠	-5606
▁낳을	-5607
▁내면	-5608
▁내서	-5609
▁냉면	-5610
▁너가	-5611
▁너의	-5612
▁넣을	-5613
▁노려	-5614
▁놀까	-5615
▁농구	-5616
▁농담	-5617
▁놔둬	-5618
▁누락	-5619
▁눈높	-5620
▁늙어	-5621
▁다칠	-5622
▁단체	-5623
▁닮은	-5624
▁답은	-5625
▁당첨	-5626
▁당한	-5627
▁대수	-5628
▁대충	-5629
▁대피	-5630
▁데가	-5631
▁독이	-5632
▁돌려	-5633
▁돌면	-5634
▁되짚	-5635
▁두푼	-5636
▁뒤에	-5637
▁뒹굴	-5638
▁드릴	-5639
▁땀을	-5640
▁때매	-5641
▁때요	-5642
▁때죠	-5643
▁떠날	-5644
▁또한	-5645
▁똥차	-5646
▁뜨겁	-5647
▁띄는	-5648
▁롱디	-5649
▁리드	-5650
▁마른	-5651
▁마중	-5652
▁막막	-5653
▁만화	-5654
▁말걸	-5655
▁망함	-5656
▁맞아	-5657
▁먹먹	-5658
▁먹은	-5659
▁멈춰	-5660
▁멋져	-5661
▁목적	-5662
▁몰려	-5663
▁못자	-5664
▁무모	-5665
▁무언	-5666
▁문화	-5667
▁물이	-5668
▁뭐로	-5669
▁뭐지	-5670
▁뭐해	-5671
▁뭘로	-5672
▁미루	-5673
▁미팅	-5674
▁믿고	-5675
▁믿어	-5676
▁믿지	-5677
▁밀려	-5678
▁바꿨	-5679
▁바쁠	-5680
▁반에	-5681
▁반장	-5682
▁반한	-5683
▁발견	-5684
▁밥을	-5685
▁방금	-5686
▁배달	-5687
▁배신	-5688
▁백업	-5689
▁버는	-5690
▁버릇	-5691
▁베프	-5692
▁변신	-5693
▁병신	-5694
▁보란	-5695
▁보신	-5696
▁봐주	-5697
▁봤네	-5698
▁부질	-5699
▁불만	-5700
▁불효	-5701
▁브랜	-5702
▁블록	-5703
▁비워	-5704
▁뿌린	-5705
▁사도	-5706
▁사먹	-5707
▁사수	-5708
▁사전	-5709
▁사줘	-5710
▁사춘	-5711
▁사표	-5712
▁상종	-5713
▁생생	-5714
▁서점	-5715
▁선풍	-5716
▁설득	-5717
▁세어	-5718
▁소름	-5719
▁속박	-5720
▁손편	-5721
▁수건	-5722
▁수능	-5723
▁승진	-5724
▁시려	-5725
▁시선	-5726
▁실천	-5727
▁실패	-5728
▁실행	-5729
▁싸운	-5730
▁싸웠	-5731
▁쌓여	-5732
▁썸도	-5733
▁쓰일	-5734
▁아부	-5735
▁안고	-5736
▁안될	-5737
▁안맞	-5738
▁안부	-5739
▁안할	-5740
▁알까	-5741
▁애의	-5742
▁애인	-5743
▁액정	-5744
▁어흥	-5745
▁없고	-5746
▁엇갈	-5747
▁엠티	-5748
▁여쭤	-5749
▁역할	-5750
▁열어	-5751
▁열흘	-5752
▁영어	-5753
▁예능	-5754
▁예비	-5755
▁예상	-5756
▁예약	-5757
▁오길	-5758
▁오려	-5759
▁오바	-5760
▁오셨	-5761
▁옳은	-5762
▁와인	-5763
▁와플	-5764
▁왠지	-5765
▁외출	-5766
▁욕해	-5767
▁운이	-5768
▁울고	-5769
▁웃는	-5770
▁웃음	-5771
▁원동	-5772
▁원인	-5773
▁원치	-5774
▁월세	-5775
▁웨딩	-5776
▁웹툰	-5777
▁으아	-5778
▁음료	-5779
▁이끌	-5780
▁이왕	-5781
▁인상	-5782
▁인지	-5783
▁일기	-5784
▁일방	-5785
▁일부	-5786
▁일시	-5787
▁읽어	-5788
▁임용	-5789
▁입학	-5790
▁있대	-5791
▁잊기	-5792
▁자장	-5793
▁작동	-5794
▁잘라	-5795
▁잠들	-5796
▁잡념	-5797
▁장갑	-5798
▁적당	-5799
▁전과	-5800
▁전학	-5801
▁절친	-5802
▁정장	-5803
▁정정	-5804
▁제정	-5805
▁조가	-5806
▁졸린	-5807
▁좋긴	-5808
▁좋음	-5809
▁좌절	-5810
▁죄가	-5811
▁주량	-5812
▁주워	-5813
▁즐겨	-5814
▁증거	-5815
▁증명	-5816
▁지각	-5817
▁지낸	-5818
▁지속	-5819
▁지압	-5820
▁지적	-5821
▁지친	-5822
▁직업	-5823
▁직전	-5824
▁질려	-5825
▁질린	-5826
▁질문	-5827
▁짧죠	-5828
▁찍는	-5829
▁찍어	-5830
▁찢어	-5831
▁차인	-5832
▁참다	-5833
▁처리	-5834
▁청결	-5835
▁청춘	-5836
▁최신	-5837
▁최저	-5838
▁축제	-5839
▁춥네	-5840
▁친절	-5841
▁친척	-5842
▁침묵	-5843
▁커서	-5844
▁케익	-5845
▁킁킁	-5846
▁키울	-5847
▁타나	-5848
▁타러	-5849
▁타인	-5850
▁탈모	-5851
▁태연	-5852
▁터지	-5853
▁터질	-5854
▁토닥	-5855
▁톡이	-5856
▁파도	-5857
▁팍팍	-5858
▁패션	-5859
▁포맷	-5860
▁폭식	-5861
▁피로	-5862
▁필기	-5863
▁필수	-5864
▁하러	-5865
▁하아	-5866
▁학벌	-5867
▁한약	-5868
▁한푼	-5869
▁할지	-5870
▁합리	-5871
▁해로	-5872
▁해준	-5873
▁했을	-5874
▁허락	-5875
▁현타	-5876
▁혼수	-5877
▁확률	-5878
▁환기	-5879
▁황당	-5880
▁회의	-5881
▁훔쳐	-5882
▁휴학	-5883
▁흐른	-5884
개월차	-5885
건강에	-5886
겠네여	-5887
기간을	-5888
다는걸	-5889
다는데	-5890
되어야	-5891
드리는	-5892
드위치	-5893
들이랑	-5894
뜨리기	-5895
렵니다	-5896
마다의	-5897
바퀴만	-5898
보려고	-5899
봤는데	-5900
사람은	-5901
센터에	-5902
셨나요	-5903
시키는	-5904
야해요	-5905
어가길	-5906
여행이	-5907
였나요	-5908
왔으면	-5909
이니까	-5910
이었어	-5911
졌어요	-5912
줬더니	-5913
지능에	-5914
칼로리	-5915
하기가	-5916
하기로	-5917
하는건	-5918
하려면	-5919
할까요	-5920
해봐도	-5921
해졌죠	-5922
해줘서	-5923
해지길	-5924
해지네	-5925
했다고	-5926
했다면	-5927
했던거	-5928
했을까	-5929
▁100	-5930
▁가기로	-5931
▁가끔씩	-5932
▁가네요	-5933
▁가는게	-5934
▁가려고	-5935
▁가볍게	-5936
▁가봐요	-5937
▁가야돼	-5938
▁가족들	-5939
▁각질제	-5940
▁간만에	-5941
▁간절히	-5942
▁갈수록	-5943
▁감각이	-5944
▁감정기	-5945
▁갑니다	-5946
▁거겠지	-5947
▁거라면	-5948
▁건강을	-5949
▁건들지	-5950
▁걸음을	-5951
▁것이죠	-5952
▁겠지만	-5953
▁결과가	-5954
▁결국엔	-5955
▁결혼을	-5956
▁계기가	-5957
▁고시원	-5958
▁고양이	-5959
▁곳까지	-5960
▁곳이죠	-5961
▁관계의	-5962
▁괜찮길	-5963
▁괜찮다	-5964
▁구멍이	-5965
▁귀여울	-5966
▁그것도	-5967
▁그녀도	-5968
▁그런가	-5969
▁그런지	-5970
▁그린라	-5971
▁그만둬	-5972
▁근처로	-5973
▁글쎄요	-5974
▁기르고	-5975
▁기술이	-5976
▁기억에	-5977
▁기억은	-5978
▁기억해	-5979
▁기울여	-5980
▁기준이	-5981
▁깨달음	-5982
▁꼼수를	-5983
▁꽃길만	-5984
▁끊겼어	-5985
▁나가면	-5986
▁나는데	-5987
▁나오네	-5988
▁나올거	-5989
▁나왔네	-5990
▁나이에	-5991
▁나이테	-5992
▁남겨서	-5993
▁남아있	-5994
▁남이니	-5995
▁남자의	-5996
▁낭만이	-5997
▁내일을	-5998
▁내일이	-5999
▁노래는	-6000
▁누구야	-6001
▁다녀도	-6002
▁다르게	-6003
▁다르지	-6004
▁다리가	-6005
▁단맛도	-6006
▁달라요	-6007
▁답답할	-6008
▁답정녀	-6009
▁대기업	-6010
▁대청소	-6011
▁대화의	-6012
▁더워서	-6013
▁도전은	-6014
▁돌리는	-6015
▁돌아서	-6016
▁동영상	-6017
▁되려고	-6018
▁되려면	-6019
▁되어요	-6020
▁되었길	-6021
▁되었네	-6022
▁되었을	-6023
▁된다고	-6024
▁두세요	-6025
▁뒷감당	-6026
▁드려요	-6027
▁들이대	-6028
▁따듯한	-6029
▁따라가	-6030
▁때로는	-6031
▁때부터	-6032
▁떠나간	-6033
▁떨린다	-6034
▁떨어뜨	-6035
▁똑같애	-6036
▁뛰어넘	-6037
▁레시피	-6038
▁마시지	-6039
▁막히는	-6040
▁막힌다	-6041
▁만남은	-6042
▁만났던	-6043
▁만났든	-6044
▁만들기	-6045
▁만지지	-6046
▁많으시	-6047
▁많은가	-6048
▁많은걸	-6049
▁말아야	-6050
▁말해서	-6051
▁말해주	-6052
▁맘처럼	-6053
▁맛있다	-6054
▁맛있어	-6055
▁망설여	-6056
▁맞으면	-6057
▁매력을	-6058
▁먹거나	-6059
▁먹는데	-6060
▁먹어도	-6061
▁먹어야	-6062
▁멈추지	-6063
▁메뉴얼	-6064
▁면도기	-6065
▁면역이	-6066
▁명상을	-6067
▁모습도	-6068
▁모자라	-6069
▁몸에는	-6070
▁무시해	-6071
▁무의식	-6072
▁무조건	-6073
▁문제죠	-6074
▁뭐하나	-6075
▁뭐하면	-6076
▁미래를	-6077
▁미련을	-6078
▁미용실	-6079
▁발전이	-6080
▁방법도	-6081
▁배울까	-6082
▁버리는	-6083
▁버스가	-6084
▁버티고	-6085
▁벅찰텐	-6086
▁베트남	-6087
▁베풀고	-6088
▁변해요	-6089
▁변화도	-6090
▁보기로	-6091
▁보내지	-6092
▁보냈네	-6093
▁보답을	-6094
▁보름달	-6095
▁보일러	-6096
▁부분을	-6097
▁부족해	-6098
▁불안해	-6099
▁불편한	-6100
▁붙잡는	-6101
▁붙잡아	-6102
▁비밀은	-6103
▁비밀을	-6104
▁비세요	-6105
▁비싸요	-6106
▁빠르면	-6107
▁빠지면	-6108
▁뻑뻑해	-6109
▁사과할	-6110
▁사귀어	-6111
▁사람인	-6112
▁사랑니	-6113
▁사이로	-6114
▁산책을	-6115
▁살쪄도	-6116
▁새신발	-6117
▁생각도	-6118
▁생겨서	-6119
▁선택이	-6120
▁설레는	-6121
▁설렘이	-6122
▁성공한	-6123
▁성별을	-6124
▁성적이	-6125
▁소리를	-6126
▁소문이	-6127
▁소소한	-6128
▁소액결	-6129
▁소화가	-6130
▁속시원	-6131
▁속이는	-6132
▁손가락	-6133
▁술마시	-6134
▁술한잔	-6135
▁쉽지가	-6136
▁스키장	-6137
▁시선을	-6138
▁시작할	-6139
▁식습관	-6140
▁싫어요	-6141
▁심심해	-6142
▁싶으면	-6143
▁싸우고	-6144
▁싸웠어	-6145
▁썸녀가	-6146
▁썸타고	-6147
▁쓰려고	-6148
▁쓰면서	-6149
▁쓰이는	-6150
▁아껴뒀	-6151
▁아는거	-6152
▁아니길	-6153
▁아니네	-6154
▁아니지	-6155
▁아쉬운	-6156
▁아울렛	-6157
▁아이디	-6158
▁아프게	-6159
▁아픔도	-6160
▁안받아	-6161
▁안부를	-6162
▁안좋아	-6163
▁안좋은	-6164
▁안타까	-6165
▁않았길	-6166
▁않지요	-6167
▁알겠어	-6168
▁알뜰폰	-6169
▁알바생	-6170
▁알아볼	-6171
▁앞에선	-6172
▁애매한	-6173
▁애틋한	-6174
▁애프터	-6175
▁야경이	-6176
▁어느새	-6177
▁어떡함	-6178
▁어렵다	-6179
▁어리석	-6180
▁어쩌면	-6181
▁어플로	-6182
▁어플을	-6183
▁언니랑	-6184
▁얼굴에	-6185
▁엄마랑	-6186
▁없는지	-6187
▁없지요	-6188
▁여러명	-6189
▁여자로	-6190
▁연락도	-6191
▁연애중	-6192
▁연인과	-6193
▁염색을	-6194
▁영양제	-6195
▁예감은	-6196
▁예민해	-6197
▁예뻐질	-6198
▁예의일	-6199
▁오니까	-6200
▁오디션	-6201
▁오라고	-6202
▁오해가	-6203
▁옷이요	-6204
▁외롭고	-6205
▁욕하고	-6206
▁용기내	-6207
▁우산에	-6208
▁우연이	-6209
▁우정이	-6210
▁운동할	-6211
▁월급날	-6212
▁월급은	-6213
▁위로를	-6214
▁위험한	-6215
▁위험해	-6216
▁유부녀	-6217
▁의심해	-6218
▁이기니	-6219
▁이러는	-6220
▁이력서	-6221
▁이별중	-6222
▁이별할	-6223
▁이사를	-6224
▁이어질	-6225
▁이어폰	-6226
▁이유로	-6227
▁이해를	-6228
▁이해못	-6229
▁인내할	-6230
▁인맥이	-6231
▁인생의	-6232
▁인터넷	-6233
▁일요일	-6234
▁일인지	-6235
▁입냄새	-6236
▁잇몸약	-6237
▁있거나	-6238
▁있겠다	-6239
▁있군요	-6240
▁있냐고	-6241
▁있었어	-6242
▁잊지못	-6243
▁잊혀져	-6244
▁자다가	-6245
▁자신은	-6246
▁자야지	-6247
▁자장면	-6248
▁잘생겼	-6249
▁잘지내	-6250
▁잘하면	-6251
▁잡아도	-6252
▁장학금	-6253
▁재밌을	-6254
▁저녁에	-6255
▁전여자	-6256
▁전하지	-6257
▁접는게	-6258
▁접어야	-6259
▁정리해	-6260
▁정신이	-6261
▁정해져	-6262
▁조심히	-6263
▁조절을	-6264
▁존중해	-6265
▁종교의	-6266
▁좋네요	-6267
▁좋대요	-6268
▁좋아서	-6269
▁좋았던	-6270
▁좋은거	-6271
▁좋을거	-6272
▁주저리	-6273
▁준다면	-6274
▁준비할	-6275
▁즐거울	-6276
▁즐겁게	-6277
▁즐기는	-6278
▁지극히	-6279
▁지금의	-6280
▁지루해	-6281
▁지웠어	-6282
▁지진시	-6283
▁지쳐서	-6284
▁지칠만	-6285
▁진실된	-6286
▁짝녀를	-6287
▁짠하고	-6288
▁찌질한	-6289
▁참았어	-6290
▁채워질	-6291
▁초기화	-6292
▁최고의	-6293
▁최악의	-6294
▁추천해	-6295
▁커플링	-6296
▁커피가	-6297
▁커피는	-6298
▁케이스	-6299
▁콩깍지	-6300
▁키우는	-6301
▁틀리는	-6302
▁파도가	-6303
▁편의점	-6304
▁포기가	-6305
▁풀어야	-6306
▁피하는	-6307
▁피해만	-6308
▁하나죠	-6309
▁하다니	-6310
▁하루는	-6311
▁하지도	-6312
▁한국도	-6313
▁한번더	-6314
▁한번쯤	-6315
▁한심해	-6316
▁할까요	-6317
▁함께도	-6318
▁해결될	-6319
▁해줄까	-6320
▁행동은	-6321
▁허리가	-6322
▁헤아릴	-6323
▁헷갈리	-6324
▁호랑이	-6325
▁호의를	-6326
▁혼자를	-6327
▁화장이	-6328
▁후회만	-6329
▁후회해	-6330
▁휴식도	-6331
▁흐르는	-6332
▁흘러가	-6333
▁희망은	-6334
▁희망이	-6335
▁힘들까	-6336
기만해도	-6337
드시거나	-6338
리겠어요	-6339
받으세요	-6340
보이네요	-6341
사람친구	-6342
성이에요	-6343
시나봐요	-6344
시는구나	-6345
실거예요	-6346
어두세요	-6347
있습니다	-6348
적이네요	-6349
지마세요	-6350
체적으로	-6351
하나봐요	-6352
하셨어요	-6353
해야할지	-6354
해졌어요	-6355
▁가능하죠	-6356
▁가능한가	-6357
▁가리세요	-6358
▁가족한테	-6359
▁간사하죠	-6360
▁감사하는	-6361
▁감으세요	-6362
▁갑작스럽	-6363
▁거짓말은	-6364
▁거짓말을	-6365
▁걱정이야	-6366
▁건강습관	-6367
▁건강하게	-6368
▁견뎌내고	-6369
▁결혼준비	-6370
▁결혼하고	-6371
▁결혼하기	-6372
▁결혼해야	-6373
▁고마움을	-6374
▁고민이죠	-6375
▁공부하면	-6376
▁과식하지	-6377
▁관심사에	-6378
▁괜찮겠지	-6379
▁괜찮을거	-6380
▁교양수업	-6381
▁그렇겠죠	-6382
▁금수저로	-6383
▁기다려도	-6384
▁기다리던	-6385
▁기본으로	-6386
▁기본이죠	-6387
▁깔끔해질	-6388
▁깨닫다니	-6389
▁꼬박꼬박	-6390
▁나겠네요	-6391
▁날이네요	-6392
▁남았네요	-6393
▁남이에요	-6394
▁남자분들	-6395
▁남자에게	-6396
▁남친이랑	-6397
▁낭만적인	-6398
▁너무나도	-6399
▁너무너무	-6400
▁넘어가네	-6401
▁넘었는데	-6402
▁놀이공원	-6403
▁높겠네요	-6404
▁놓으세요	-6405
▁눈높이가	-6406
▁늦었어요	-6407
▁다녀왔어	-6408
▁다릅니다	-6409
▁다하세요	-6410
▁단체생활	-6411
▁단호하게	-6412
▁달라져요	-6413
▁달라지지	-6414
▁당분간은	-6415
▁당신만이	-6416
▁데이트가	-6417
▁동생한테	-6418
▁드립니다	-6419
▁들리려고	-6420
▁들어가서	-6421
▁떨어지는	-6422
▁마셨는데	-6423
▁마음에서	-6424
▁마음이랑	-6425
▁만난다면	-6426
▁만화같은	-6427
▁맡기세요	-6428
▁먹었더니	-6429
▁멀어지면	-6430
▁멈추세요	-6431
▁메모하는	-6432
▁모두에게	-6433
▁모아야할	-6434
▁목표네요	-6435
▁무너져요	-6436
▁무섭나요	-6437
▁무한리필	-6438
▁문제네요	-6439
▁물어봐도	-6440
▁미안하다	-6441
▁바쁜일이	-6442
▁반가워요	-6443
▁받으세요	-6444
▁벗어나는	-6445
▁변화시켜	-6446
▁보내시길	-6447
▁보다보면	-6448
▁보일러가	-6449
▁보험처리	-6450
▁부모님을	-6451
▁분위기를	-6452
▁불공평해	-6453
▁비교하면	-6454
▁비밀연애	-6455
▁비정규직	-6456
▁비행기표	-6457
▁뿌린대로	-6458
▁사람이다	-6459
▁사람이야	-6460
▁사람하고	-6461
▁사랑이죠	-6462
▁사랑인지	-6463
▁사랑할까	-6464
▁사생활이	-6465
▁살아있음	-6466
▁상대방의	-6467
▁샌드위치	-6468
▁생각들을	-6469
▁생각하게	-6470
▁생겼어요	-6471
▁생긴다는	-6472
▁선물하면	-6473
▁선생님께	-6474
▁소유하는	-6475
▁쇼핑하고	-6476
▁수면양말	-6477
▁쉬어가도	-6478
▁스타일이	-6479
▁스테이크	-6480
▁슬퍼하고	-6481
▁습관처럼	-6482
▁시간내서	-6483
▁시기네요	-6484
▁신경쓰고	-6485
▁신경쓰면	-6486
▁신경쓰이	-6487
▁신고하고	-6488
▁심어볼까	-6489
▁심해지는	-6490
▁싶어하는	-6491
▁썸녀한테	-6492
▁쓸데없는	-6493
▁아름답죠	-6494
▁아쉬움이	-6495
▁아침부터	-6496
▁아팠으면	-6497
▁안타깝게	-6498
▁안해먹고	-6499
▁않겠네요	-6500
▁알아보는	-6501
▁어느정도	-6502
▁어둠에서	-6503
▁어떠세요	-6504
▁어떡하죠	-6505
▁어머어머	-6506
▁어찌해야	-6507
▁엄마아빠	-6508
▁없는걸까	-6509
▁없답니다	-6510
▁없어졌어	-6511
▁에너지가	-6512
▁에너지를	-6513
▁여자에게	-6514
▁여친에게	-6515
▁연락왔어	-6516
▁연락할까	-6517
▁연애세포	-6518
▁염탐하지	-6519
▁오래오래	-6520
▁올거예요	-6521
▁왜이렇게	-6522
▁외로움을	-6523
▁용서하고	-6524
▁웃으면서	-6525
▁원동력이	-6526
▁원인이죠	-6527
▁원한다면	-6528
▁유효기간	-6529
▁의식하는	-6530
▁이름이랑	-6531
▁이모티콘	-6532
▁이별하는	-6533
▁이불밖은	-6534
▁이상적인	-6535
▁이어보고	-6536
▁이어주는	-6537
▁이왕이면	-6538
▁이제서야	-6539
▁이해하고	-6540
▁이해하기	-6541
▁익숙해져	-6542
▁인생에서	-6543
▁인지시켜	-6544
▁인테리어	-6545
▁일어나면	-6546
▁일하면서	-6547
▁입으세요	-6548
▁있는걸까	-6549
▁있답니다	-6550
▁있으세요	-6551
▁잊어가는	-6552
▁잊혀질까	-6553
▁잘지내고	-6554
▁잠재력을	-6555
▁재미있어	-6556
▁재밌는거	-6557
▁저마다의	-6558
▁정신없이	-6559
▁존중하고	-6560
▁졸업식에	-6561
▁좋아지고	-6562
▁좋아지는	-6563
▁지금부터	-6564
▁지하철에	-6565
▁집에서도	-6566
▁짜증나네	-6567
▁차였는데	-6568
▁찾아가는	-6569
▁찾아봐요	-6570
▁찾아오는	-6571
▁챙겨주면	-6572
▁챙기세요	-6573
▁취미네요	-6574
▁취직하면	-6575
▁친구들을	-6576
▁친구라면	-6577
▁친구인데	-6578
▁친해지는	-6579
▁컴퓨터가	-6580
▁클럽에서	-6581
▁판단되면	-6582
▁표현하지	-6583
▁피부관리	-6584
▁필요하지	-6585
▁하느냐에	-6586
▁하니까요	-6587
▁하다보니	-6588
▁하셨군요	-6589
▁하지말고	-6590
▁한가지만	-6591
▁한답니다	-6592
▁한바퀴만	-6593
▁함께하고	-6594
▁합리적인	-6595
▁해결되길	-6596
▁해보려고	-6597
▁해봤는데	-6598
▁해야겠지	-6599
▁핸드폰이	-6600
▁헤어짐은	-6601
▁헬스장에	-6602
▁헷갈리네	-6603
▁형편대로	-6604
▁혼자해도	-6605
▁확인하는	-6606
▁후련하네	-6607
▁후련하니	-6608
▁후회하는	-6609
▁후회할까	-6610
▁힘들겠죠	-6611
▁힘들지만	-6612
원해보세요	-6613
조심하세요	-6614
하셨겠어요	-6615
한가봅니다	-6616
▁가능하다고	-6617
▁가족들이랑	-6618
▁간직하세요	-6619
▁갑작스러운	-6620
▁결혼적령기	-6621
▁고민하느라	-6622
▁고백하는게	-6623
▁고백하세요	-6624
▁공부하세요	-6625
▁공부해야지	-6626
▁괜찮아지고	-6627
▁그린라이트	-6628
▁기다리세요	-6629
▁기다릴게요	-6630
▁끝났습니다	-6631
▁나갈거예요	-6632
▁나눠보는게	-6633
▁나쁜거예요	-6634
▁남자입니다	-6635
▁놀랐겠어요	-6636
▁놀랐나봐요	-6637
▁놀러가세요	-6638
▁다가가세요	-6639
▁다행이네요	-6640
▁대단하네요	-6641
▁대피방법을	-6642
▁덜어보세요	-6643
▁데려가세요	-6644
▁도와달라고	-6645
▁동감입니다	-6646
▁두근거림을	-6647
▁드려보세요	-6648
▁들려주세요	-6649
▁들었겠네요	-6650
▁따뜻해졌죠	-6651
▁로봇이에요	-6652
▁만남이네요	-6653
▁만들었어요	-6654
▁망가뜨리기	-6655
▁밀어보세요	-6656
▁바람이라도	-6657
▁받아들여야	-6658
▁벅찰텐대요	-6659
▁병원가세요	-6660
▁보냈습니다	-6661
▁불편하겠죠	-6662
▁비하하지는	-6663
▁사랑스러운	-6664
▁사랑이라는	-6665
▁사랑이에요	-6666
▁사랑하니까	-6667
▁삭제하는게	-6668
▁상관없지만	-6669
▁생각이네요	-6670
▁생각한대로	-6671
▁생각할게요	-6672
▁생각할수록	-6673
▁생겼을지도	-6674
▁선물이네요	-6675
▁선택이었을	-6676
▁성공적으로	-6677
▁세워보세요	-6678
▁소개팅으로	-6679
▁소개팅하고	-6680
▁소중합니다	-6681
▁스타트업에	-6682
▁스트레스를	-6683
▁스트레스야	-6684
▁스트레스의	-6685
▁시간이네요	-6686
▁시켜달라고	-6687
▁아직이라면	-6688
▁알아두세요	-6689
▁알아차려도	-6690
▁알아차리지	-6691
▁애정표현일	-6692
▁없애주세요	-6693
▁없으니까요	-6694
▁여쭤보세요	-6695
▁여행이네요	-6696
▁연락이라도	-6697
▁연락하는게	-6698
▁연락하라고	-6699
▁연락해보는	-6700
▁연락해봐요	-6701
▁오늘이에요	-6702
▁운동하세요	-6703
▁움직이세요	-6704
▁위해서예요	-6705
▁응원할게요	-6706
▁이야기하고	-6707
▁이야기하는	-6708
▁이어나가는	-6709
▁인공지능에	-6710
▁일어나세요	-6711
▁있었을지도	-6712
▁자체만으로	-6713
▁잘못입니다	-6714
▁잡아보세요	-6715
▁재밌겠어요	-6716
▁점심시간에	-6717
▁정리하세요	-6718
▁정신건강에	-6719
▁정정기간을	-6720
▁제자리걸음	-6721
▁조급해지면	-6722
▁졸업하는데	-6723
▁좋으시네요	-6724
▁주의하세요	-6725
▁준비하기는	-6726
▁준비하느라	-6727
▁지저분해요	-6728
▁직접적으로	-6729
▁질러보세요	-6730
▁청소하세요	-6731
▁치료하세요	-6732
▁친구들한테	-6733
▁친해지는게	-6734
▁칭찬이네요	-6735
▁칭찬해주고	-6736
▁포장하는게	-6737
▁표현해보는	-6738
▁하루하루가	-6739
▁하우스웨딩	-6740
▁해드릴게요	-6741
▁해야겠네여	-6742
▁행복하세요	-6743
▁행복해보여	-6744
▁호랑이보다	-6745
▁확실해지면	-6746
▁흘려보세요	-6747
▁힘드니까요	-6748
▁간절하겠네요	-6749
▁개시해보세요	-6750
▁걱정되겠어요	-6751
▁결정했나봐요	-6752
▁극복해보세요	-6753
▁낳을뿐이에요	-6754
▁넓으신가봐요	-6755
▁놔둬야하는데	-6756
▁대단하시군요	-6757
▁되짚어보세요	-6758
▁많았나봅니다	-6759
▁부딪혔나봐요	-6760
▁부탁드립니다	-6761
▁분담해보세요	-6762
▁사랑하는지는	-6763
▁삭제해보세요	-6764
▁아껴뒀나봐요	-6765
▁연락두절돼서	-6766
▁운동해보세요	-6767
▁위로해드리는	-6768
▁이해해보세요	-6769
▁재미있나봐요	-6770
▁절약되겠네요	-6771
▁정신차리세요	-6772
▁존중해주세요	-6773
▁챙겨드시거나	-6774
▁축하해주세요	-6775
▁포맷해보세요	-6776
▁피곤했나봐요	-6777
▁필요해보여요	-6778
▁확인해달라고	-6779
▁힘드시겠어요	-6780
▁걱정하지마세요	-6781
▁결정이었을거라	-6782
▁말씀드려보세요	-6783
▁부담스러워할까	-6784
▁적응해야겠네요	-6785
▁좋아하시는구나	-6786
▁프로포즈해보세요	-6787
▁0	-6788
▁겉	-6789
▁곤	-6790
▁깍	-6791
▁깰	-6792
▁껴	-6793
▁꽝	-6794
▁꿔	-6795
▁꿰	-6796
▁낸	-6797
▁넋	-6798
▁뇌	-6799
▁갱	-6800
▁눌	-6801
▁눕	-6802
▁덥	-6803
▁돕	-6804
▁뒀	-6805
▁떴	-6806
▁떼	-6807
▁뜬	-6808
▁묘	-6809
▁박	-6810
▁벤	-6811
▁볶	-6812
▁빛	-6813
▁뻐	-6814
▁뽀	-6815
▁숫	-6816
▁쌍	-6817
▁앱	-6818
▁얽	-6819
▁엿	-6820
▁워	-6821
▁잼	-6822
▁쥐	-6823
▁짰	-6824
▁쪄	-6825
▁쭉	-6826
▁춘	-6827
▁캬	-6828
▁턱	-6829
▁텀	-6830
▁텅	-6831
▁퇴	-6832
▁틈	-6833
▁팁	-6834
▁팩	-6835
▁펴	-6836
▁헐	-6837
▁헥	-6838
▁헹	-6839
▁홈	-6840
▁홧	-6841
▁흠	-6842
▁히	-6843
가서	-6844
가에	-6845
가한	-6846
간대	-6847
간질	-6848
갔다	-6849
거든	-6850
걸이	-6851
겁한	-6852
게해	-6853
경이	-6854
계절	-6855
고의	-6856
과류	-6857
그램	-6858
그런	-6859
극이	-6860
근한	-6861
근해	-6862
긋지	-6863
긋한	-6864
기다	-6865
기사	-6866
기한	-6867
길래	-6868
꺼풀	-6869
꼈어	-6870
꾸던	-6871
났을	-6872
낭비	-6873
내길	-6874
너덜	-6875
년만	-6876
년반	-6877
년전	-6878
놓지	-6879
는다	-6880
니깐	-6881
님들	-6882
다운	-6883
닥을	-6884
달래	-6885
답이	-6886
더군	-6887
도라	-6888
독여	-6889
동거	-6890
동물	-6891
동차	-6892
됐네	-6893
된다	-6894
됬네	-6895
두리	-6896
들의	-6897
따로	-6898
때문	-6899
▁돋	-6900
▁엊	-6901
▁욜	-6902
▁젤	-6903
구로	-6904
꾸로	-6905
년사	-6906
땜에	-6907
떨떨	-6908
란다	-6909
량의	-6910
려는	-6911
렸다	-6912
로라	-6913
로션	-6914
로잡	-6915
르몬	-6916
른다	-6917
릴있	-6918
마디	-6919
만남	-6920
망이	-6921
먹을	-6922
문득	-6923
물주	-6924
미고	-6925
바구	-6926
받은	-6927
발이	-6928
방비	-6929
버림	-6930
번을	-6931
번의	-6932
베리	-6933
보낼	-6934
보려	-6935
볶이	-6936
봐야	-6937
부르	-6938
부한	-6939
불러	-6940
뿐이	-6941
사이	-6942
사자	-6943
사진	-6944
상일	-6945
샜어	-6946
서요	-6947
서히	-6948
선배	-6949
설계	-6950
섭섭	-6951
성에	-6952
성을	-6953
셨어	-6954
소짓	-6955
수건	-6956
스레	-6957
시도	-6958
시방	-6959
시에	-6960
시지	-6961
신가	-6962
신고	-6963
신청	-6964
실에	-6965
실을	-6966
싶네	-6967
싸움	-6968
썸남	-6969
아파	-6970
안나	-6971
안할	-6972
액션	-6973
약이	-6974
었나	-6975
었는	-6976
었지	-6977
여도	-6978
여서	-6979
여주	-6980
연이	-6981
오게	-6982
오늘	-6983
오지	-6984
올까	-6985
와도	-6986
욕탕	-6987
용품	-6988
워시	-6989
워야	-6990
웠던	-6991
은지	-6992
의별	-6993
의의	-6994
이상	-6995
이진	-6996
이집	-6997
인공	-6998
일도	-6999
일은	-7000
임금	-7001
임말	-7002
잊혀	-7003
자가	-7004
잔치	-7005
쟁이	-7006
저히	-7007
적일	-7008
점이	-7009
좋아	-7010
주에	-7011
주의	-7012
주인	-7013
준대	-7014
줘도	-7015
줘서	-7016
즈를	-7017
지질	-7018
직이	-7019
질때	-7020
짼데	-7021
차게	-7022
찰랑	-7023
채기	-7024
천번	-7025
체가	-7026
쳐서	-7027
쳤다	-7028
초가	-7029
초에	-7030
치료	-7031
커플	-7032
코인	-7033
키기	-7034
타는	-7035
탈까	-7036
탈이	-7037
탔어	-7038
통이	-7039
통제	-7040
트로	-7041
트를	-7042
편이	-7043
평가	-7044
폭발	-7045
피해	-7046
학원	-7047
한대	-7048
한듯	-7049
할래	-7050
할수	-7051
혔어	-7052
활용	-7053
효도	-7054
휴일	-7055
히나	-7056
!!!	-7057
...	-7058
???	-7059
▁11	-7060
▁가본	-7061
▁가시	-7062
▁가입	-7063
▁가자	-7064
▁간섭	-7065
▁간질	-7066
▁갈궈	-7067
▁갈등	-7068
▁갔나	-7069
▁거도	-7070
▁거둬	-7071
▁거에	-7072
▁거였	-7073
▁건데	-7074
▁걸요	-7075
▁겁나	-7076
▁것에	-7077
▁것일	-7078
▁겠지	-7079
▁격식	-7080
▁견적	-7081
▁계산	-7082
▁계약	-7083
▁고집	-7084
▁곤두	-7085
▁골랐	-7086
▁공간	-7087
▁공복	-7088
▁공황	-7089
▁관찰	-7090
▁구매	-7091
▁구박	-7092
▁굳이	-7093
▁그나	-7094
▁그도	-7095
▁그림	-7096
▁그의	-7097
▁그지	-7098
▁그쪽	-7099
▁근교	-7100
▁근데	-7101
▁기네	-7102
▁기름	-7103
▁기쁨	-7104
▁기침	-7105
▁길을	-7106
▁김에	-7107
▁까아	-7108
▁깨진	-7109
▁깨짐	-7110
▁꾸죠	-7111
▁끊기	-7112
▁끊는	-7113
▁끊어	-7114
▁끌지	-7115
▁끝의	-7116
▁나게	-7117
▁나란	-7118
▁나빴	-7119
▁난감	-7120
▁날짜	-7121
▁남녀	-7122
▁낮술	-7123
▁내딛	-7124
▁내맘	-7125
▁너덜	-7126
▁너랑	-7127
▁넘게	-7128
▁넘넘	-7129
▁넘은	-7130
▁노잼	-7131
▁놀자	-7132
▁놓는	-7133
▁놓지	-7134
▁누워	-7135
▁느꼈	-7136
▁늘어	-7137
▁다듬	-7138
▁답을	-7139
▁대상	-7140
▁대쉬	-7141
▁덥다	-7142
▁데도	-7143
▁데서	-7144
▁돕는	-7145
▁돼서	-7146
▁돼지	-7147
▁되게	-7148
▁될지	-7149
▁두렵	-7150
▁둘다	-7151
▁드려	-7152
▁듣는	-7153
▁들게	-7154
▁듯한	-7155
▁따끔	-7156
▁따져	-7157
▁딱히	-7158
▁딴짓	-7159
▁때인	-7160
▁떨고	-7161
▁뜨끈	-7162
▁뜨는	-7163
▁라는	-7164
▁마라	-7165
▁만한	-7166
▁말과	-7167
▁말만	-7168
▁말자	-7169
▁망상	-7170
▁망한	-7171
▁맞게	-7172
▁맞을	-7173
▁맞이	-7174
▁맞출	-7175
▁매몰	-7176
▁매운	-7177
▁매정	-7178
▁먹기	-7179
▁먹나	-7180
▁멈출	-7181
▁멋질	-7182
▁메리	-7183
▁모여	-7184
▁몸과	-7185
▁몸살	-7186
▁못난	-7187
▁못생	-7188
▁무지	-7189
▁미운	-7190
▁믿는	-7191
▁믿음	-7192
▁밑바	-7193
▁바란	-7194
▁바래	-7195
▁반영	-7196
▁받네	-7197
▁받았	-7198
▁받음	-7199
▁발라	-7200
▁발이	-7201
▁밤만	-7202
▁밤새	-7203
▁밥은	-7204
▁배가	-7205
▁배정	-7206
▁백수	-7207
▁뱃살	-7208
▁버림	-7209
▁번만	-7210
▁벌레	-7211
▁벌면	-7212
▁법을	-7213
▁벗겨	-7214
▁벗어	-7215
▁벤츠	-7216
▁병행	-7217
▁보수	-7218
▁보약	-7219
▁보임	-7220
▁보자	-7221
▁부케	-7222
▁부팅	-7223
▁분양	-7224
▁불순	-7225
▁불쑥	-7226
▁블랙	-7227
▁비만	-7228
▁비쌈	-7229
▁비오	-7230
▁비와	-7231
▁비용	-7232
▁비친	-7233
▁비트	-7234
▁비해	-7235
▁비혼	-7236
▁빌어	-7237
▁빼앗	-7238
▁사무	-7239
▁살려	-7240
▁살죠	-7241
▁삶에	-7242
▁삶은	-7243
▁샀다	-7244
▁서울	-7245
▁서핑	-7246
▁선배	-7247
▁설계	-7248
▁설렐	-7249
▁설마	-7250
▁세달	-7251
▁세탁	-7252
▁속아	-7253
▁속지	-7254
▁수십	-7255
▁수제	-7256
▁숙제	-7257
▁숙취	-7258
▁숫자	-7259
▁쉬다	-7260
▁스노	-7261
▁스쳐	-7262
▁스케	-7263
▁슬플	-7264
▁시급	-7265
▁식사	-7266
▁식욕	-7267
▁식은	-7268
▁식혀	-7269
▁실용	-7270
▁심난	-7271
▁심남	-7272
▁심쿵	-7273
▁싸울	-7274
▁쌓인	-7275
▁쏟아	-7276
▁쓰게	-7277
▁쓰면	-7278
▁쓰이	-7279
▁씨씨	-7280
▁아끼	-7281
▁아날	-7282
▁아냐	-7283
▁아놔	-7284
▁아래	-7285
▁아려	-7286
▁안풀	-7287
▁안한	-7288
▁않기	-7289
▁않으	-7290
▁알긴	-7291
▁애완	-7292
▁야구	-7293
▁야식	-7294
▁약점	-7295
▁양을	-7296
▁양치	-7297
▁얘는	-7298
▁어딘	-7299
▁어언	-7300
▁어째	-7301
▁억울	-7302
▁없앨	-7303
▁에이	-7304
▁엮여	-7305
▁연상	-7306
▁연하	-7307
▁열받	-7308
▁영통	-7309
▁예고	-7310
▁예쁠	-7311
▁예정	-7312
▁예측	-7313
▁오죠	-7314
▁옥상	-7315
▁올게	-7316
▁옷은	-7317
▁와요	-7318
▁왜케	-7319
▁요청	-7320
▁욕을	-7321
▁욜로	-7322
▁용량	-7323
▁우습	-7324
▁웃게	-7325
▁웃고	-7326
▁원해	-7327
▁위축	-7328
▁유료	-7329
▁유통	-7330
▁으으	-7331
▁의존	-7332
▁이래	-7333
▁일과	-7334
▁일인	-7335
▁있던	-7336
▁잊자	-7337
▁자다	-7338
▁자요	-7339
▁자제	-7340
▁잘됐	-7341
▁잘한	-7342
▁잠식	-7343
▁장점	-7344
▁저기	-7345
▁저만	-7346
▁저음	-7347
▁저장	-7348
▁저주	-7349
▁저편	-7350
▁적은	-7351
▁적을	-7352
▁전할	-7353
▁절망	-7354
▁접은	-7355
▁접촉	-7356
▁정열	-7357
▁정이	-7358
▁젖은	-7359
▁제습	-7360
▁조별	-7361
▁졸라	-7362
▁종종	-7363
▁종지	-7364
▁좋네	-7365
▁주길	-7366
▁줄도	-7367
▁줄일	-7368
▁중문	-7369
▁줘야	-7370
▁즐길	-7371
▁지날	-7372
▁지수	-7373
▁지지	-7374
▁직후	-7375
▁질긴	-7376
▁쪼금	-7377
▁찔려	-7378
▁찬물	-7379
▁찼어	-7380
▁찾은	-7381
▁천국	-7382
▁초라	-7383
▁총회	-7384
▁추가	-7385
▁춥고	-7386
▁충실	-7387
▁취소	-7388
▁치마	-7389
▁친군	-7390
▁카공	-7391
▁크기	-7392
▁타면	-7393
▁탄다	-7394
▁태그	-7395
▁톡을	-7396
▁통장	-7397
▁투잡	-7398
▁페메	-7399
▁편린	-7400
▁편해	-7401
▁평범	-7402
▁표출	-7403
▁풀고	-7404
▁풀리	-7405
▁하객	-7406
▁하니	-7407
▁하필	-7408
▁학기	-7409
▁한결	-7410
▁한눈	-7411
▁한데	-7412
▁할게	-7413
▁할말	-7414
▁할인	-7415
▁핫한	-7416
▁해가	-7417
▁했네	-7418
▁허기	-7419
▁헌신	-7420
▁헛된	-7421
▁헥헥	-7422
▁현관	-7423
▁혼나	-7424
▁혼내	-7425
▁혼밥	-7426
▁혼인	-7427
▁화나	-7428
▁화난	-7429
▁화학	-7430
▁화해	-7431
▁효도	-7432
▁훈훈	-7433
▁휘둘	-7434
▁흐려	-7435
▁히스	-7436
▁힘겨	-7437
▁힘은	-7438
가기도	-7439
가보다	-7440
갔네요	-7441
같네요	-7442
겁니다	-7443
게되네	-7444
그리고	-7445
기간이	-7446
기한이	-7447
나가는	-7448
난다고	-7449
난다면	-7450
날인데	-7451
년간의	-7452
년동안	-7453
년인데	-7454
년하고	-7455
는다고	-7456
는다는	-7457
는데는	-7458
는지도	-7459
다는것	-7460
다는게	-7461
다니는	-7462
달라는	-7463
당하는	-7464
당했어	-7465
도라의	-7466
독하고	-7467
드리러	-7468
때문에	-7469
라고는	-7470
렸으면	-7471
만나고	-7472
망이지	-7473
방법이	-7474
버리네	-7475
보려구	-7476
보셔요	-7477
보이나	-7478
빛으로	-7479
사진을	-7480
생각이	-7481
소짓게	-7482
속에서	-7483
스러웠	-7484
스럽네	-7485
스타일	-7486
시나요	-7487
싶네요	-7488
았다고	-7489
았더니	-7490
았어요	-7491
야겠어	-7492
야겠지	-7493
어진다	-7494
없어요	-7495
었다면	-7496
었을까	-7497
었지만	-7498
였는지	-7499
였을까	-7500
오는날	-7501
옵니다	-7502
왔네요	-7503
으라고	-7504
을때는	-7505
이나마	-7506
이면서	-7507
이야기	-7508
이지요	-7509
인거죠	-7510
인트가	-7511
있어요	-7512
있을까	-7513
자마자	-7514
적이면	-7515
지나봐	-7516
지부지	-7517
질까봐	-7518
플라워	-7519
하겠어	-7520
하다니	-7521
한거니	-7522
한다고	-7523
해보는	-7524
해져도	-7525
해지고	-7526
했나요	-7527
했다는	-7528
▁가거나	-7529
▁가라앉	-7530
▁가량의	-7531
▁가리는	-7532
▁가스비	-7533
▁가슴은	-7534
▁가치가	-7535
▁간절한	-7536
▁감정도	-7537
▁갔는지	-7538
▁갖자는	-7539
▁같다면	-7540
▁같으면	-7541
▁개인의	-7542
▁거꾸로	-7543
▁거라도	-7544
▁거리가	-7545
▁걱정을	-7546
▁건강한	-7547
▁걸렸어	-7548
▁걸었어	-7549
▁것이든	-7550
▁것일까	-7551
▁견과류	-7552
▁견디기	-7553
▁결국은	-7554
▁결혼에	-7555
▁결혼하	-7556
▁경쟁이	-7557
▁고독한	-7558
▁고르는	-7559
▁고민을	-7560
▁고백이	-7561
▁고백한	-7562
▁고치기	-7563
▁공감이	-7564
▁공부를	-7565
▁공휴일	-7566
▁관계는	-7567
▁관계도	-7568
▁관계에	-7569
▁관심있	-7570
▁괜찮지	-7571
▁괴롭다	-7572
▁구남친	-7573
▁구썸남	-7574
▁귀여운	-7575
▁귀엽죠	-7576
▁귀찮다	-7577
▁귀찮은	-7578
▁그것이	-7579
▁그대의	-7580
▁그러지	-7581
▁그런거	-7582
▁그만두	-7583
▁그분도	-7584
▁그분에	-7585
▁그에게	-7586
▁기대는	-7587
▁기억될	-7588
▁기억만	-7589
▁기운이	-7590
▁길거리	-7591
▁깨끗이	-7592
▁깨졌어	-7593
▁꿈에나	-7594
▁끊는게	-7595
▁끊어야	-7596
▁끝나도	-7597
▁끝나면	-7598
▁끝내는	-7599
▁끝인거	-7600
▁끝일줄	-7601
▁나가는	-7602
▁나가지	-7603
▁나갈까	-7604
▁나니까	-7605
▁나들이	-7606
▁나쁜놈	-7607
▁나약한	-7608
▁나오고	-7609
▁나온다	-7610
▁나이들	-7611
▁나타나	-7612
▁날씨도	-7613
▁남기고	-7614
▁남기는	-7615
▁남는게	-7616
▁났나봐	-7617
▁내리지	-7618
▁내버려	-7619
▁넋두리	-7620
▁노래가	-7621
▁노후는	-7622
▁놓아줄	-7623
▁놓치고	-7624
▁놓치지	-7625
▁누구냐	-7626
▁누우면	-7627
▁눈꺼풀	-7628
▁느껴지	-7629
▁다갔어	-7630
▁다니는	-7631
▁다닐까	-7632
▁다독여	-7633
▁다른데	-7634
▁다시는	-7635
▁다양한	-7636
▁다정한	-7637
▁단순한	-7638
▁단톡방	-7639
▁달달할	-7640
▁달라질	-7641
▁담배를	-7642
▁답장을	-7643
▁당당히	-7644
▁당사자	-7645
▁당신만	-7646
▁대단한	-7647
▁대하는	-7648
▁대학원	-7649
▁더이상	-7650
▁데리러	-7651
▁도와드	-7652
▁도저히	-7653
▁도전이	-7654
▁독하게	-7655
▁돌아갈	-7656
▁돌아와	-7657
▁동생이	-7658
▁되겠죠	-7659
▁되네요	-7660
▁되시길	-7661
▁된다면	-7662
▁두려운	-7663
▁뒤돌아	-7664
▁뒷통수	-7665
▁드레스	-7666
▁든든할	-7667
▁들어맞	-7668
▁들어요	-7669
▁들으며	-7670
▁들텐데	-7671
▁딱이죠	-7672
▁때리기	-7673
▁때마다	-7674
▁땡긴다	-7675
▁떡볶이	-7676
▁떨려서	-7677
▁떨어짐	-7678
▁똑같이	-7679
▁똑똑해	-7680
▁리액션	-7681
▁마셔요	-7682
▁마시기	-7683
▁마음껏	-7684
▁마주쳤	-7685
▁만나실	-7686
▁만났을	-7687
▁만들면	-7688
▁만들죠	-7689
▁많겠지	-7690
▁많지만	-7691
▁말이죠	-7692
▁말투는	-7693
▁말하면	-7694
▁말할까	-7695
▁맘같지	-7696
▁맛난거	-7697
▁머리로	-7698
▁먹기로	-7699
▁먹으러	-7700
▁멘탈이	-7701
▁면접만	-7702
▁모두를	-7703
▁모으는	-7704
▁모처럼	-7705
▁목걸이	-7706
▁목욕탕	-7707
▁몰라서	-7708
▁몰랐어	-7709
▁몸에서	-7710
▁못할까	-7711
▁무거운	-7712
▁무너진	-7713
▁무뎌질	-7714
▁무릎에	-7715
▁무모한	-7716
▁무섭네	-7717
▁무섭다	-7718
▁문제에	-7719
▁묻어두	-7720
▁물가가	-7721
▁물질이	-7722
▁뭐하냐	-7723
▁뭘까요	-7724
▁뭘하면	-7725
▁미련만	-7726
▁미련한	-7727
▁믿기지	-7728
▁바꾸는	-7729
▁바꿔야	-7730
▁바꿨어	-7731
▁바뀌어	-7732
▁바나나	-7733
▁바람둥	-7734
▁바람피	-7735
▁반대로	-7736
▁반에서	-7737
▁받았던	-7738
▁방법은	-7739
▁방식이	-7740
▁방학에	-7741
▁방학은	-7742
▁방해가	-7743
▁배불러	-7744
▁배워도	-7745
▁배터리	-7746
▁베란다	-7747
▁변덕이	-7748
▁변하고	-7749
▁별로임	-7750
▁별의별	-7751
▁보고만	-7752
▁보고파	-7753
▁보는건	-7754
▁보는데	-7755
▁보니까	-7756
▁보듬어	-7757
▁보시면	-7758
▁보이네	-7759
▁보인다	-7760
▁복잡할	-7761
▁본인이	-7762
▁볼때는	-7763
▁봐봐요	-7764
▁부리면	-7765
▁분명히	-7766
▁분에게	-7767
▁불가능	-7768
▁비겁한	-7769
▁비정상	-7770
▁빈자리	-7771
▁빌릴까	-7772
▁빠르게	-7773
▁빠져나	-7774
▁사겼어	-7775
▁사계절	-7776
▁사귀긴	-7777
▁사귀다	-7778
▁사라진	-7779
▁사람일	-7780
▁사랑만	-7781
▁사로잡	-7782
▁사실에	-7783
▁살거야	-7784
▁살아서	-7785
▁살아온	-7786
▁샀는데	-7787
▁상대는	-7788
▁상대에	-7789
▁상사병	-7790
▁상자를	-7791
▁상태인	-7792
▁상황에	-7793
▁상황일	-7794
▁색다른	-7795
▁생각지	-7796
▁생기길	-7797
▁서서히	-7798
▁선물해	-7799
▁선의의	-7800
▁선택의	-7801
▁설레고	-7802
▁성격도	-7803
▁성장을	-7804
▁세월이	-7805
▁소름돋	-7806
▁소모가	-7807
▁소비를	-7808
▁손수건	-7809
▁손으로	-7810
▁쇼핑몰	-7811
▁수천번	-7812
▁쉬면서	-7813
▁스릴있	-7814
▁슬프다	-7815
▁시간과	-7816
▁시작은	-7817
▁시작을	-7818
▁식었어	-7819
▁싫은데	-7820
▁싶다면	-7821
▁싶은게	-7822
▁싶지만	-7823
▁썸녀랑	-7824
▁썸으로	-7825
▁썸일까	-7826
▁씁니다	-7827
▁아니니	-7828
▁아니다	-7829
▁아무는	-7830
▁아무런	-7831
▁아이고	-7832
▁아파요	-7833
▁아프기	-7834
▁안되나	-7835
▁안보여	-7836
▁안오지	-7837
▁안하면	-7838
▁안해줘	-7839
▁않았을	-7840
▁알게되	-7841
▁알려면	-7842
▁알아가	-7843
▁알아야	-7844
▁애교가	-7845
▁약간의	-7846
▁얘기해	-7847
▁어디가	-7848
▁어렵지	-7849
▁어색한	-7850
▁어색해	-7851
▁얼떨떨	-7852
▁없다는	-7853
▁없대요	-7854
▁여기서	-7855
▁여지를	-7856
▁여행지	-7857
▁역시나	-7858
▁연습해	-7859
▁연애도	-7860
▁연애인	-7861
▁연인이	-7862
▁열까지	-7863
▁영원히	-7864
▁영향을	-7865
▁영화가	-7866
▁영화를	-7867
▁예쁘다	-7868
▁예쁜데	-7869
▁예의를	-7870
▁오늘로	-7871
▁오래갈	-7872
▁오르네	-7873
▁오지랖	-7874
▁온다고	-7875
▁올랐어	-7876
▁와닿지	-7877
▁왜이리	-7878
▁외국어	-7879
▁외로움	-7880
▁우산을	-7881
▁우울증	-7882
▁우울한	-7883
▁운동은	-7884
▁운동화	-7885
▁울적한	-7886
▁울적해	-7887
▁웃는게	-7888
▁웃으면	-7889
▁원망은	-7890
▁원하지	-7891
▁월급을	-7892
▁유학을	-7893
▁의도는	-7894
▁의심이	-7895
▁이김에	-7896
▁이대로	-7897
▁이러다	-7898
▁이러면	-7899
▁이럴까	-7900
▁이번달	-7901
▁이번엔	-7902
▁이별하	-7903
▁이사람	-7904
▁이상의	-7905
▁이어가	-7906
▁이해는	-7907
▁이혼을	-7908
▁인고의	-7909
▁인연에	-7910
▁일부로	-7911
▁입니다	-7912
▁입을까	-7913
▁입장을	-7914
▁있도록	-7915
▁있었던	-7916
▁있음을	-7917
▁잊기가	-7918
▁잊는게	-7919
▁잊혀진	-7920
▁자극이	-7921
▁자동차	-7922
▁자리가	-7923
▁자유를	-7924
▁자존심	-7925
▁자체를	-7926
▁작아지	-7927
▁잔소리	-7928
▁잘되고	-7929
▁잘못은	-7930
▁잘생겨	-7931
▁잘자요	-7932
▁잘하게	-7933
▁잘하니	-7934
▁잘할까	-7935
▁잡념을	-7936
▁잡았어	-7937
▁장점을	-7938
▁재미없	-7939
▁재설계	-7940
▁재채기	-7941
▁적어도	-7942
▁적응이	-7943
▁전기가	-7944
▁전까지	-7945
▁전부는	-7946
▁전에는	-7947
▁전으로	-7948
▁전학가	-7949
▁전화는	-7950
▁정답을	-7951
▁정답이	-7952
▁정도에	-7953
▁정리되	-7954
▁정리에	-7955
▁정성이	-7956
▁정신과	-7957
▁정신병	-7958
▁정신적	-7959
▁정하고	-7960
▁정확히	-7961
▁조급해	-7962
▁조언이	-7963
▁조용히	-7964
▁종교를	-7965
▁좋다고	-7966
▁좋더라	-7967
▁좋아져	-7968
▁좋아진	-7969
▁좋으니	-7970
▁좋은지	-7971
▁주려고	-7972
▁주름살	-7973
▁주변의	-7974
▁주인공	-7975
▁죽겠다	-7976
▁죽겠어	-7977
▁죽어도	-7978
▁죽을거	-7979
▁줄임말	-7980
▁중간에	-7981
▁중고로	-7982
▁줬으면	-7983
▁지긋지	-7984
▁지나고	-7985
▁지내요	-7986
▁지워질	-7987
▁지쳐요	-7988
▁지쳤어	-7989
▁지치네	-7990
▁직장인	-7991
▁진급할	-7992
▁진통제	-7993
▁질투가	-7994
▁질투를	-7995
▁집까지	-7996
▁짜증남	-7997
▁짝남과	-7998
▁짝남은	-7999
▁짝녀와	-8000
▁찍었네	-8001
▁차단도	-8002
▁차별이	-8003
▁차이인	-8004
▁착각이	-8005
▁참겠어	-8006
▁참아야	-8007
▁창피해	-8008
▁책임질	-8009
▁처음엔	-8010
▁처음이	-8011
▁첫이별	-8012
▁청소는	-8013
▁청소를	-8014
▁축복과	-8015
▁축하해	-8016
▁취직할	-8017
▁취해서	-8018
▁친척들	-8019
▁카톡할	-8020
▁컴터가	-8021
▁클럽을	-8022
▁탓하지	-8023
▁티나나	-8024
▁페북을	-8025
▁포근한	-8026
▁풀렸길	-8027
▁피시방	-8028
▁피하고	-8029
▁필요가	-8030
▁필요도	-8031
▁하겠죠	-8032
▁하기로	-8033
▁하는거	-8034
▁하늘이	-8035
▁하라는	-8036
▁하려면	-8037
▁하루일	-8038
▁하시고	-8039
▁하지마	-8040
▁하지요	-8041
▁학교에	-8042
▁한달반	-8043
▁한달째	-8044
▁한번만	-8045
▁한순간	-8046
▁한없이	-8047
▁한켠에	-8048
▁할게요	-8049
▁할수록	-8050
▁함께면	-8051
▁해내고	-8052
▁해주면	-8053
▁했나봐	-8054
▁했네요	-8055
▁했는지	-8056
▁했더니	-8057
▁행동할	-8058
▁행복이	-8059
▁향수가	-8060
▁허상일	-8061
▁허전할	-8062
▁헷갈려	-8063
▁호르몬	-8064
▁확률이	-8065
▁후배가	-8066
▁후회없	-8067
▁휴유증	-8068
▁흑역사	-8069
▁흔적이	-8070
▁흘러갈	-8071
▁힘내요	-8072
▁힘들면	-8073
남자친구	-8074
년이라는	-8075
더라구요	-8076
르니까요	-8077
만으로도	-8078
받으면서	-8079
보는것도	-8080
사람에게	-8081
이라면요	-8082
이었네요	-8083
이었는데	-8084
적이에요	-8085
중입니다	-8086
질뻔했어	-8087
하겠지만	-8088
하면서도	-8089
한다는데	-8090
해야하나	-8091
▁가고싶다	-8092
▁가까워질	-8093
▁가나봐요	-8094
▁가늠하지	-8095
▁가벼워질	-8096
▁가져가면	-8097
▁가져왔다	-8098
▁가족들과	-8099
▁가치관에	-8100
▁간단하게	-8101
▁간질간질	-8102
▁감성적이	-8103
▁거니까요	-8104
▁거두세요	-8105
▁거짓말이	-8106
▁걱정하면	-8107
▁건가봐요	-8108
▁겨울에는	-8109
▁견뎌봐요	-8110
▁결정하기	-8111
▁결정하는	-8112
▁결혼이나	-8113
▁결혼한지	-8114
▁계산적인	-8115
▁고마워요	-8116
▁고맙다고	-8117
▁고백해야	-8118
▁고백했다	-8119
▁공부하는	-8120
▁공부하러	-8121
▁공부할까	-8122
▁괜찮아지	-8123
▁궁금증을	-8124
▁궁금하면	-8125
▁궁금한게	-8126
▁그것만큼	-8127
▁그러니까	-8128
▁그럴까요	-8129
▁그럴수도	-8130
▁그리움을	-8131
▁그리움이	-8132
▁그분에게	-8133
▁그사람이	-8134
▁기다려야	-8135
▁기다리게	-8136
▁기대치가	-8137
▁길러볼까	-8138
▁까먹었어	-8139
▁깎아야지	-8140
▁깨달음이	-8141
▁끝일지도	-8142
▁나겠어요	-8143
▁나누는게	-8144
▁나아지길	-8145
▁나에게도	-8146
▁나오라고	-8147
▁나오세요	-8148
▁날이에요	-8149
▁남자애랑	-8150
▁내려놓고	-8151
▁내리는게	-8152
▁냉장고에	-8153
▁너덜너덜	-8154
▁너무하네	-8155
▁노력해도	-8156
▁누구보다	-8157
▁누구한테	-8158
▁느낀다면	-8159
▁느려졌어	-8160
▁다가가도	-8161
▁다가오고	-8162
▁다되가네	-8163
▁달리세요	-8164
▁답답하다	-8165
▁답답해서	-8166
▁당연해요	-8167
▁대리효도	-8168
▁데이트는	-8169
▁데이트할	-8170
▁도와줘야	-8171
▁돌아가는	-8172
▁돌아오길	-8173
▁돌아오는	-8174
▁돌아오지	-8175
▁돌아올까	-8176
▁동생이랑	-8177
▁동생인데	-8178
▁됐습니다	-8179
▁되어가길	-8180
▁되어가네	-8181
▁되었는지	-8182
▁두고두고	-8183
▁드는걸로	-8184
▁들어오면	-8185
▁따끔하게	-8186
▁마음가는	-8187
▁마음에게	-8188
▁마음인지	-8189
▁마주치면	-8190
▁마주치지	-8191
▁마지막을	-8192
▁마지막이	-8193
▁만나기만	-8194
▁만나자는	-8195
▁말이예요	-8196
▁말하는게	-8197
▁말해보는	-8198
▁말해야지	-8199
▁맞나봐요	-8200
▁머릿속이	-8201
▁멋있네요	-8202
▁멋지네요	-8203
▁모르겠다	-8204
▁모습으로	-8205
▁몰랐어요	-8206
▁못하는데	-8207
▁못했군요	-8208
▁무너졌어	-8209
▁무뎌지는	-8210
▁문득문득	-8211
▁물리적인	-8212
▁뭐하냐고	-8213
▁뭐하는지	-8214
▁미련없이	-8215
▁미소짓게	-8216
▁미안하대	-8217
▁미화되기	-8218
▁믿었는데	-8219
▁바꾸세요	-8220
▁바꿔볼까	-8221
▁바꿔야지	-8222
▁바디로션	-8223
▁바디워시	-8224
▁바라는게	-8225
▁바란다면	-8226
▁바보같이	-8227
▁반대래요	-8228
▁반복되는	-8229
▁방법이죠	-8230
▁배고파서	-8231
▁배려해야	-8232
▁배우세요	-8233
▁배우자가	-8234
▁배워가는	-8235
▁배워보고	-8236
▁배워볼까	-8237
▁버려야지	-8238
▁베터리가	-8239
▁변해가는	-8240
▁별로네요	-8241
▁보내세요	-8242
▁보냈으니	-8243
▁복잡하게	-8244
▁봐보세요	-8245
▁봐주세요	-8246
▁봤습니다	-8247
▁부모님께	-8248
▁부정적인	-8249
▁부족한가	-8250
▁분명하게	-8251
▁분위기가	-8252
▁브랜드가	-8253
▁비슷하죠	-8254
▁비오는날	-8255
▁비트코인	-8256
▁비혼주의	-8257
▁사귀는데	-8258
▁사귀세요	-8259
▁사귀자고	-8260
▁사귀자는	-8261
▁사람만의	-8262
▁사랑받는	-8263
▁사랑보다	-8264
▁사랑에도	-8265
▁사랑하게	-8266
▁사랑해줄	-8267
▁사랑했어	-8268
▁삭제하는	-8269
▁살고싶어	-8270
▁살아가는	-8271
▁살아야죠	-8272
▁살았는데	-8273
▁상관없이	-8274
▁상대방은	-8275
▁상처받게	-8276
▁생각없이	-8277
▁생각일까	-8278
▁생각지도	-8279
▁생각처럼	-8280
▁생각했던	-8281
▁생일선물	-8282
▁선물해도	-8283
▁선택으로	-8284
▁세상이죠	-8285
▁속박에서	-8286
▁손가락이	-8287
▁솔직하고	-8288
▁쉬어가는	-8289
▁스스로를	-8290
▁스타일에	-8291
▁시간낭비	-8292
▁시간인데	-8293
▁시골에서	-8294
▁시끄러워	-8295
▁시어머니	-8296
▁시작하는	-8297
▁시키세요	-8298
▁식단조절	-8299
▁신경쓰인	-8300
▁실망하지	-8301
▁실용적인	-8302
▁심심한데	-8303
▁싶나봐요	-8304
▁썸인가요	-8305
▁아날로그	-8306
▁아니겠지	-8307
▁아니었어	-8308
▁아무말도	-8309
▁아침마다	-8310
▁아파하고	-8311
▁아프지만	-8312
▁안되겠죠	-8313
▁않습니다	-8314
▁않았네요	-8315
▁않았다면	-8316
▁알겠어서	-8317
▁알바생이	-8318
▁알아가는	-8319
▁애완동물	-8320
▁얘기하지	-8321
▁어디가지	-8322
▁어디에서	-8323
▁어린이집	-8324
▁어울릴까	-8325
▁어장인거	-8326
▁언제부터	-8327
▁얼굴보고	-8328
▁없습니다	-8329
▁없으면서	-8330
▁여우같은	-8331
▁여유롭게	-8332
▁여자인데	-8333
▁여친이랑	-8334
▁여행가고	-8335
▁연락오네	-8336
▁연습하고	-8337
▁연애상담	-8338
▁연애할때	-8339
▁연예인도	-8340
▁영화보고	-8341
▁영화보러	-8342
▁예상하지	-8343
▁오랜연애	-8344
▁외롭다고	-8345
▁웬수네요	-8346
▁웬수예요	-8347
▁의미일까	-8348
▁의심하지	-8349
▁의지해도	-8350
▁이겨내고	-8351
▁이뤄지지	-8352
▁이별이든	-8353
▁이별하면	-8354
▁이사하는	-8355
▁이상한가	-8356
▁이상형을	-8357
▁이야기는	-8358
▁이야기할	-8359
▁이용하는	-8360
▁이제부터	-8361
▁이해해요	-8362
▁인기있는	-8363
▁인연이죠	-8364
▁인정하는	-8365
▁일상으로	-8366
▁일어나야	-8367
▁일요일에	-8368
▁일이라도	-8369
▁일주일이	-8370
▁있었어요	-8371
▁자신만의	-8372
▁자야겠다	-8373
▁자존심을	-8374
▁잘되니까	-8375
▁잘해주면	-8376
▁장난인지	-8377
▁재미있는	-8378
▁쟁취하는	-8379
▁적극적인	-8380
▁전화해도	-8381
▁접촉하는	-8382
▁정리되길	-8383
▁정리하게	-8384
▁정리하길	-8385
▁제정신이	-8386
▁조급하게	-8387
▁종지부를	-8388
▁좋아졌어	-8389
▁좋아한대	-8390
▁좋을지도	-8391
▁주말이네	-8392
▁주말인데	-8393
▁지겨워진	-8394
▁지나가는	-8395
▁지났는데	-8396
▁지났어요	-8397
▁진지하게	-8398
▁집착하게	-8399
▁짝사랑만	-8400
▁차단하고	-8401
▁차례예요	-8402
▁차분하고	-8403
▁찾아오네	-8404
▁척하는게	-8405
▁첫사랑을	-8406
▁첫인상은	-8407
▁최저임금	-8408
▁추운가요	-8409
▁취직이나	-8410
▁친구들은	-8411
▁친구에게	-8412
▁크기만큼	-8413
▁토닥토닥	-8414
▁통보하는	-8415
▁퇴근길에	-8416
▁판도라의	-8417
▁편안하게	-8418
▁편안해질	-8419
▁편하다는	-8420
▁표현하기	-8421
▁피곤해서	-8422
▁한달만에	-8423
▁해달라고	-8424
▁해야겠죠	-8425
▁해야하나	-8426
▁해주는게	-8427
▁해주면서	-8428
▁해줬으면	-8429
▁행복하면	-8430
▁허무하네	-8431
▁헤어지네	-8432
▁헤어짐도	-8433
▁혼인신고	-8434
▁확실하게	-8435
▁확인하고	-8436
▁후회안할	-8437
▁후회하면	-8438
▁훔쳐보는	-8439
▁흐지부지	-8440
▁흘리세요	-8441
▁희생양이	-8442
▁히스테리	-8443
▁힘들거라	-8444
▁힘들어도	-8445
▁힘이드네	-8446
버렸습니다	-8447
었나봅니다	-8448
이었나봐요	-8449
하고싶은데	-8450
하더라고요	-8451
하시겠어요	-8452
해졌나봐요	-8453
▁가능할까요	-8454
▁가져주세요	-8455
▁개강이라니	-8456
▁객관적으로	-8457
▁걱정마세요	-8458
▁것만으로도	-8459
▁고민이네요	-8460
▁고백받았어	-8461
▁고백할까요	-8462
▁괜찮습니다	-8463
▁구체적으로	-8464
▁귀엽겠네요	-8465
▁기대했는데	-8466
▁기도할게요	-8467
▁길러보세요	-8468
▁깊었나봐요	-8469
▁남사친이랑	-8470
▁남편이네요	-8471
▁느껴보세요	-8472
▁다되어가네	-8473
▁다를거예요	-8474
▁달려있겠죠	-8475
▁답답할거라	-8476
▁당신이네요	-8477
▁데이트하고	-8478
▁뒤숭숭하네	-8479
▁따져보세요	-8480
▁때문이겠죠	-8481
▁때문이에요	-8482
▁떨리겠어요	-8483
▁떨어뜨려서	-8484
▁마셔보세요	-8485
▁마음이네요	-8486
▁마음이에요	-8487
▁만들어봐요	-8488
▁모르겠지만	-8489
▁무덤덤해질	-8490
▁무시당하는	-8491
▁문제인가요	-8492
▁물어보거나	-8493
▁미안해하지	-8494
▁믿어주세요	-8495
▁반갑습니다	-8496
▁반했나봐요	-8497
▁변덕스럽게	-8498
▁보내보세요	-8499
▁복잡한가요	-8500
▁봉사활동도	-8501
▁부담스러울	-8502
▁분인가봐요	-8503
▁사람들한테	-8504
▁사람일지도	-8505
▁사랑이라고	-8506
▁사랑이야기	-8507
▁사랑하는지	-8508
▁사랑하세요	-8509
▁사랑합니다	-8510
▁사랑해주는	-8511
▁생각나네요	-8512
▁생각하면서	-8513
▁서운하다고	-8514
▁쉬어가세요	-8515
▁습관처럼은	-8516
▁시간이었을	-8517
▁시간이에요	-8518
▁신경쓰이는	-8519
▁심리일까요	-8520
▁썸이었으면	-8521
▁아껴주세요	-8522
▁아닐거예요	-8523
▁아파하다가	-8524
▁아프겠어요	-8525
▁안되나봐요	-8526
▁안좋아하는	-8527
▁애프터까지	-8528
▁없어졌으면	-8529
▁여사친이랑	-8530
▁영화관이나	-8531
▁왔나봅니다	-8532
▁유통기한이	-8533
▁유효기간이	-8534
▁의미부여는	-8535
▁이별이에요	-8536
▁이별하려고	-8537
▁이야기해요	-8538
▁익숙해지지	-8539
▁인사드리러	-8540
▁인생이에요	-8541
▁인연이라면	-8542
▁인정하세요	-8543
▁일어났더니	-8544
▁일이니까요	-8545
▁일주일이네	-8546
▁잊어버리는	-8547
▁잘하셨어요	-8548
▁장난스러운	-8549
▁재회했는데	-8550
▁전여친이랑	-8551
▁전여친한테	-8552
▁접어두셔요	-8553
▁정리하는데	-8554
▁정리하려고	-8555
▁제자리여도	-8556
▁조금이나마	-8557
▁존중합니다	-8558
▁좋겠습니다	-8559
▁좋아하니까	-8560
▁좋아할까요	-8561
▁좋았을텐데	-8562
▁주말이네요	-8563
▁준비되어야	-8564
▁준비하는데	-8565
▁중독인가봐	-8566
▁중요하겠죠	-8567
▁지긋지긋한	-8568
▁지켜주세요	-8569
▁진정하세요	-8570
▁질투난다고	-8571
▁짝사랑에서	-8572
▁찍어주세요	-8573
▁차단하세요	-8574
▁채워보세요	-8575
▁채워줄게요	-8576
▁챙겨주세요	-8577
▁최선이었을	-8578
▁추천드려요	-8579
▁크시겠어요	-8580
▁태어났을까	-8581
▁팔아보세요	-8582
▁표현하세요	-8583
▁필요한가요	-8584
▁하셨나봐요	-8585
▁한달이에요	-8586
▁행복했으면	-8587
▁헤어지자는	-8588
▁헤어진지도	-8589
▁헬스장에서	-8590
▁혼란스러워	-8591
▁흘렀나봐요	-8592
▁결혼적령기가	-8593
▁고민해보세요	-8594
▁그리운가봐요	-8595
▁기울여보세요	-8596
▁다독여주세요	-8597
▁대화해보세요	-8598
▁도와드릴게요	-8599
▁도전해보세요	-8600
▁드라이플라워	-8601
▁떨쳐버리세요	-8602
▁무덤덤해지는	-8603
▁받아들이세요	-8604
▁배려해보세요	-8605
▁복잡한가봐요	-8606
▁부족한가봐요	-8607
▁빠져나오세요	-8608
▁상의해보세요	-8609
▁새출발하세요	-8610
▁생각하나봐요	-8611
▁생각해봅니다	-8612
▁서운하겠어요	-8613
▁설득해보세요	-8614
▁신청해보세요	-8615
▁여기까지였을	-8616
▁연락해도될까	-8617
▁연락했습니다	-8618
▁의지해보세요	-8619
▁이야기하세요	-8620
▁이어나가는게	-8621
▁익숙해지지가	-8622
▁있었나봅니다	-8623
▁정리했습니다	-8624
▁제안해보세요	-8625
▁존중해줬으면	-8626
▁좋아하는데도	-8627
▁좋아했나봐요	-8628
▁중요하니까요	-8629
▁착잡하겠어요	-8630
▁칭찬해보세요	-8631
▁표현해주세요	-8632
▁피곤하겠어요	-8633
▁허전하겠어요	-8634
▁허전한가봐요	-8635
▁헛헛한가봐요	-8636
▁헤어지고나서	-8637
▁화이트데이에	-8638
▁힘들었을텐데	-8639
▁결혼적령기예요	-8640
▁그린라이트일까	-8641
▁당황하셨겠어요	-8642
▁들어맞나봅니다	-8643
▁마음정리하세요	-8644
▁받아들여보세요	-8645
▁사람이었나봐요	-8646
▁사랑이었나봐요	-8647
▁사랑하나봅니다	-8648
▁신경쓰이나봐요	-8649
▁사랑이었으니까요	-8650
▁..	-8651
▁SD	-8652
▁강림	-8653
▁갚을	-8654
▁갱신	-8655
▁걔랑	-8656
▁걷기	-8657
▁겁이	-8658
▁광탈	-8659
▁광합	-8660
▁교통	-8661
▁교환	-8662
▁권리	-8663
▁권유	-8664
▁근무	-8665
▁근질	-8666
▁근황	-8667
▁깊어	-8668
▁까봐	-8669
▁깍고	-8670
▁깜깜	-8671
▁꼈어	-8672
▁꼬르	-8673
▁꽃게	-8674
▁꽃꽂	-8675
▁꽃을	-8676
▁끄고	-8677
▁낮춰	-8678
▁냐에	-8679
▁넓고	-8680
▁네가	-8681
▁녹음	-8682
▁녹차	-8683
▁놈의	-8684
▁눌러	-8685
▁눕지	-8686
▁뉴스	-8687
▁닫고	-8688
▁덕질	-8689
▁독서	-8690
▁독학	-8691
▁돋을	-8692
▁둘을	-8693
▁뒤따	-8694
▁뒤처	-8695
▁등록	-8696
▁등이	-8697
▁디자	-8698
▁디져	-8699
▁강박	-8700
▁곱창	-8701
▁꾸고	-8702
▁독특	-8703
▁딸까	-8704
▁땅을	-8705
▁땡기	-8706
▁뚫어	-8707
▁뛰는	-8708
▁뜬금	-8709
▁뜻밖	-8710
▁뜻은	-8711
▁로그	-8712
▁로망	-8713
▁맴찢	-8714
▁맺는	-8715
▁멀미	-8716
▁멍때	-8717
▁메인	-8718
▁메일	-8719
▁면세	-8720
▁명만	-8721
▁명언	-8722
▁명확	-8723
▁박도	-8724
▁밟힐	-8725
▁봄방	-8726
▁북받	-8727
▁빚이	-8728
▁빛이	-8729
▁빵꾸	-8730
▁빼도	-8731
▁뻐근	-8732
▁뽀뽀	-8733
▁뽑아	-8734
▁산다	-8735
▁삶도	-8736
▁삼재	-8737
▁삼주	-8738
▁섭섭	-8739
▁숨길	-8740
▁숨쉬	-8741
▁숨한	-8742
▁쌍커	-8743
▁쌓아	-8744
▁써서	-8745
▁쓴지	-8746
▁씹어	-8747
▁씻어	-8748
▁앉아	-8749
▁액션	-8750
▁양이	-8751
▁엉엉	-8752
▁엊그	-8753
▁역류	-8754
▁온전	-8755
▁온천	-8756
▁옷차	-8757
▁욕먹	-8758
▁욕은	-8759
▁움츠	-8760
▁윗몸	-8761
▁윗집	-8762
▁으악	-8763
▁익숨	-8764
▁잃을	-8765
▁작게	-8766
▁작별	-8767
▁잔잔	-8768
▁잤네	-8769
▁쟁여	-8770
▁접질	-8771
▁존경	-8772
▁존댓	-8773
▁졸리	-8774
▁죄는	-8775
▁죄송	-8776
▁줬어	-8777
▁쥐꼬	-8778
▁짓만	-8779
▁짧을	-8780
▁째깍	-8781
▁쪄서	-8782
▁쪼잔	-8783
▁쪽팔	-8784
▁쫄면	-8785
▁찌는	-8786
▁찌뿌	-8787
▁찌푸	-8788
▁찔러	-8789
▁착용	-8790
▁착할	-8791
▁찰랑	-8792
▁채널	-8793
▁책만	-8794
▁책장	-8795
▁철밥	-8796
▁철은	-8797
▁철이	-8798
▁체조	-8799
▁골반	-8800
▁금값	-8801
▁금사	-8802
▁높이	-8803
▁라인	-8804
▁밥도	-8805
▁빼면	-8806
▁솔솔	-8807
▁식도	-8808
▁식상	-8809
▁앱이	-8810
▁울면	-8811
▁종료	-8812
▁종목	-8813
▁종이	-8814
▁짜지	-8815
▁청강	-8816
▁청구	-8817
▁초과	-8818
▁초록	-8819
▁초초	-8820
▁촬영	-8821
▁침해	-8822
▁칼국	-8823
▁캬아	-8824
▁케빈	-8825
▁코코	-8826
▁콜록	-8827
▁클스	-8828
▁키스	-8829
▁탄생	-8830
▁탔다	-8831
▁탔던	-8832
▁텅비	-8833
▁퇴사	-8834
▁트인	-8835
▁트집	-8836
▁특이	-8837
▁특히	-8838
▁티끌	-8839
▁티나	-8840
▁티비	-8841
▁팀워	-8842
▁파급	-8843
▁파토	-8844
▁팔뚝	-8845
▁팔찌	-8846
▁평일	-8847
▁폭풍	-8848
▁폰겜	-8849
▁폰이	-8850
▁푸석	-8851
▁풀려	-8852
▁품에	-8853
▁프리	-8854
▁플라	-8855
▁햇볕	-8856
▁향이	-8857
▁향한	-8858
▁헌팅	-8859
▁험해	-8860
▁활기	-8861
▁활력	-8862
▁효율	-8863
▁흐를	-8864
▁흔한	-8865
가지구	-8866
각한데	-8867
강신청	-8868
개발을	-8869
거같네	-8870
거름이	-8871
거리가	-8872
거리확	-8873
격증을	-8874
과일이	-8875
그치지	-8876
끝이네	-8877
난데요	-8878
년만난	-8879
년사귄	-8880
노래방	-8881
눈물을	-8882
단점을	-8883
도해줄	-8884
돌아오	-8885
동실에	-8886
들어가	-8887
디오를	-8888
때마다	-8889
라더니	-8890
랑이가	-8891
러들지	-8892
렉트로	-8893
려버리	-8894
름신이	-8895
리카드	-8896
맥이요	-8897
메랑이	-8898
모습을	-8899
▁개당	-8900
▁손님	-8901
▁손목	-8902
▁손재	-8903
▁천일	-8904
▁천지	-8905
▁출발	-8906
▁친추	-8907
▁크네	-8908
▁크루	-8909
▁태몽	-8910
▁환경	-8911
▁환해	-8912
▁흘려	-8913
달만에	-8914
몰웨딩	-8915
물주물	-8916
배상을	-8917
백한다	-8918
버려요	-8919
버렸나	-8920
베리아	-8921
보기만	-8922
봐주는	-8923
봤을때	-8924
사람을	-8925
사정을	-8926
생이면	-8927
섣부르	-8928
세우지	-8929
세포에	-8930
소모가	-8931
순간이	-8932
순위에	-8933
스리스	-8934
스센터	-8935
스트하	-8936
안됐네	-8937
어있는	-8938
어져요	-8939
어주는	-8940
였더라	-8941
우제를	-8942
워지고	-8943
위래요	-8944
육아가	-8945
으려구	-8946
으려니	-8947
이어야	-8948
이요법	-8949
이진지	-8950
이크업	-8951
일째네	-8952
자리에	-8953
잡이가	-8954
적일까	-8955
조사는	-8956
주가지	-8957
주려는	-8958
주저리	-8959
주정도	-8960
쥬스는	-8961
지러워	-8962
지못한	-8963
직이수	-8964
찬가지	-8965
척거리	-8966
체인이	-8967
쳇바퀴	-8968
케이스	-8969
키스는	-8970
트롤을	-8971
트지로	-8972
페이스	-8973
평가되	-8974
하대요	-8975
하더라	-8976
하던게	-8977
하려구	-8978
한건지	-8979
할때는	-8980
할만한	-8981
합시다	-8982
해졌길	-8983
▁15%	-8984
▁가까이	-8985
▁가는거	-8986
▁가봤어	-8987
▁가슴을	-8988
▁가야죠	-8989
▁가운데	-8990
▁가져도	-8991
▁가지를	-8992
▁가치와	-8993
▁각자가	-8994
▁간단한	-8995
▁감기일	-8996
▁감당이	-8997
▁감사한	-8998
▁감수성	-8999
▁개기	-9000
▁개야	-9001
▁깎인	-9002
▁난다	-9003
▁난처	-9004
▁몸도	-9005
▁몸은	-9006
▁볼링	-9007
▁볼매	-9008
▁붙어	-9009
▁욕함	-9010
▁허례	-9011
국가요	-9012
오른다	-9013
할수록	-9014
해보고	-9015
▁가벼움	-9016
▁갔다와	-9017
▁강박관	-9018
▁강제종	-9019
▁개기름	-9020
▁개념만	-9021
▁개념이	-9022
▁개당황	-9023
▁거부의	-9024
▁건데요	-9025
▁걸려요	-9026
▁것같아	-9027
▁것이요	-9028
▁겉모습	-9029
▁결심이	-9030
▁결심한	-9031
▁계신가	-9032
▁고가의	-9033
▁고생이	-9034
▁고장이	-9035
▁골라줘	-9036
▁곱다고	-9037
▁곳이요	-9038
▁공감을	-9039
▁공개해	-9040
▁공황장	-9041
▁과거는	-9042
▁과거의	-9043
▁과정을	-9044
▁과정일	-9045
▁광고가	-9046
▁괴로운	-9047
▁괴롭혀	-9048
▁교복이	-9049
▁교통사	-9050
▁교환학	-9051
▁교회에	-9052
▁구분이	-9053
▁구분해	-9054
▁구속해	-9055
▁구여친	-9056
▁군대를	-9057
▁권리로	-9058
▁그나저	-9059
▁그때는	-9060
▁그랬을	-9061
▁그랬지	-9062
▁그분과	-9063
▁그분을	-9064
▁글자만	-9065
▁금사빠	-9066
▁급하게	-9067
▁기대도	-9068
▁기대돼	-9069
▁기름값	-9070
▁기운낼	-9071
▁길러도	-9072
▁김치도	-9073
▁김치볶	-9074
▁깊었을	-9075
▁까먹고	-9076
▁까먹어	-9077
▁깎아요	-9078
▁깨닫게	-9079
▁깨지고	-9080
▁꺼지기	-9081
▁꼬르륵	-9082
▁꼼꼼한	-9083
▁꽃꽂이	-9084
▁꽃바구	-9085
▁꽃으로	-9086
▁꾸는데	-9087
▁꾸미고	-9088
▁꿈같다	-9089
▁꿈꾸던	-9090
▁꿨는데	-9091
▁끓이는	-9092
▁끝나서	-9093
▁끝내긴	-9094
▁끝냈어	-9095
▁끝이네	-9096
▁끝이보	-9097
▁나가고	-9098
▁나가도	-9099
▁갈구	-9100
▁경향	-9101
▁깨질	-9102
▁났어	-9103
▁막상	-9104
▁막장	-9105
▁멋을	-9106
▁번은	-9107
▁순서	-9108
▁쓸모	-9109
▁와라	-9110
▁와우	-9111
▁유기	-9112
▁유세	-9113
▁잡혀	-9114
▁죽지	-9115
▁챙겼	-9116
▁챙기	-9117
▁챙긴	-9118
▁챙길	-9119
▁치킨	-9120
▁휴양	-9121
▁휴우	-9122
들었어	-9123
보군요	-9124
▁경향이	-9125
▁그만큰	-9126
▁꿈처럼	-9127
▁나가서	-9128
▁나가요	-9129
▁나쁜데	-9130
▁나오지	-9131
▁나올까	-9132
▁나와야	-9133
▁나왔길	-9134
▁나이를	-9135
▁낙이죠	-9136
▁난방이	-9137
▁남았어	-9138
▁남친과	-9139
▁남친의	-9140
▁남편을	-9141
▁났으면	-9142
▁낮잠은	-9143
▁내거나	-9144
▁내년이	-9145
▁내딛으	-9146
▁내려놔	-9147
▁내려요	-9148
▁내리기	-9149
▁내릴까	-9150
▁내면을	-9151
▁냄새나	-9152
▁냉방비	-9153
▁넘었어	-9154
▁노래들	-9155
▁노래로	-9156
▁노래요	-9157
▁노력이	-9158
▁녹여서	-9159
▁놀기만	-9160
▁놀러가	-9161
▁놀아서	-9162
▁놀이터	-9163
▁높으면	-9164
▁놓쳐서	-9165
▁놓쳤다	-9166
▁누굴까	-9167
▁눈사람	-9168
▁눈에도	-9169
▁느낌을	-9170
▁늙어가	-9171
▁능력만	-9172
▁다가온	-9173
▁다가옴	-9174
▁다같이	-9175
▁다니고	-9176
▁다음날	-9177
▁다음달	-9178
▁다쳤어	-9179
▁다치지	-9180
▁단수가	-9181
▁달라져	-9182
▁달라졌	-9183
▁달력에	-9184
▁답일까	-9185
▁당번을	-9186
▁대놓고	-9187
▁대답이	-9188
▁대체불	-9189
▁대충한	-9190
▁대학교	-9191
▁더없이	-9192
▁도와준	-9193
▁도전을	-9194
▁독서와	-9195
▁돌잔치	-9196
▁동물원	-9197
▁동성애	-9198
▁동성을	-9199
낌새	-9200
수의	-9201
▁경찰	-9202
▁과함	-9203
▁깨는	-9204
▁낌새	-9205
▁낙담	-9206
▁늦기	-9207
▁단어	-9208
▁단지	-9209
▁듯이	-9210
▁민망	-9211
▁별별	-9212
▁보조	-9213
▁복근	-9214
▁복붙	-9215
▁복합	-9216
▁블루	-9217
▁색감	-9218
▁싸는	-9219
▁싸면	-9220
▁싸서	-9221
▁애착	-9222
▁약초	-9223
▁장사	-9224
▁처방	-9225
▁코트	-9226
▁호구	-9227
▁호박	-9228
▁호수	-9229
▁호텔	-9230
거리고	-9231
스트나	-9232
심하네	-9233
안했던	-9234
어지고	-9235
컥하네	-9236
▁같기도	-9237
▁건조한	-9238
▁경찰에	-9239
▁과해도	-9240
▁기침도	-9241
▁낌새가	-9242
▁나온거	-9243
▁내일의	-9244
▁동안의	-9245
▁되가네	-9246
▁되돌릴	-9247
▁되지요	-9248
▁두근두	-9249
▁두분이	-9250
▁둘이서	-9251
▁뒀네요	-9252
▁뒷모습	-9253
▁뒹굴뒹	-9254
▁드시지	-9255
▁득템해	-9256
▁들이댔	-9257
▁듭니다	-9258
▁등록금	-9259
▁등으로	-9260
▁따라와	-9261
▁딸기가	-9262
▁딸기잼	-9263
▁땀나네	-9264
▁땀난다	-9265
▁때리고	-9266
▁땡기네	-9267
▁떠올라	-9268
▁떠올려	-9269
▁떡졌어	-9270
▁떨기는	-9271
▁떨어진	-9272
▁떨쳐낼	-9273
▁똑같지	-9274
▁뜨겁게	-9275
▁뜨겁고	-9276
▁뜻밖의	-9277
▁뜻으로	-9278
▁로그인	-9279
▁로봇도	-9280
▁리드를	-9281
▁마련의	-9282
▁마시며	-9283
▁막말이	-9284
▁막히네	-9285
▁만날땐	-9286
▁만남을	-9287
▁만족을	-9288
▁만족해	-9289
▁많데요	-9290
▁많아도	-9291
▁말로만	-9292
▁말씀이	-9293
▁말씀해	-9294
▁말았네	-9295
▁말해봐	-9296
▁맛없어	-9297
▁맞아서	-9298
▁맞았어	-9299
▁롤	-9300
▁옮	-9301
놈들	-9302
주차	-9303
키는	-9304
▁구경	-9305
▁구릿	-9306
▁구질	-9307
▁너만	-9308
▁높은	-9309
▁발급	-9310
▁발달	-9311
▁발바	-9312
▁분야	-9313
▁빌렸	-9314
▁앞이	-9315
▁영역	-9316
▁외부	-9317
▁외제	-9318
▁원두	-9319
▁원서	-9320
▁입는	-9321
▁자게	-9322
▁장이	-9323
▁커요	-9324
▁커지	-9325
▁학회	-9326
부터의	-9327
수라도	-9328
천적인	-9329
하나요	-9330
▁같을까	-9331
▁공적인	-9332
▁구릿빛	-9333
▁기분나	-9334
▁나날을	-9335
▁내키는	-9336
▁대화한	-9337
▁도자기	-9338
▁만하죠	-9339
▁맘대로	-9340
▁맛있고	-9341
▁맞이할	-9342
▁맞출까	-9343
▁맞춰줄	-9344
▁매순간	-9345
▁맥주병	-9346
▁머리를	-9347
▁머릿결	-9348
▁먹먹함	-9349
▁먹었니	-9350
▁먹었다	-9351
▁먹여주	-9352
▁멀리서	-9353
▁멈추고	-9354
▁메모로	-9355
▁몇시간	-9356
▁모발이	-9357
▁모여요	-9358
▁목표가	-9359
▁목표는	-9360
▁몰랐던	-9361
▁못생긴	-9362
▁못잊는	-9363
▁못지우	-9364
▁무뎌진	-9365
▁무리가	-9366
▁무서움	-9367
▁무섭고	-9368
▁무소음	-9369
▁문자가	-9370
▁문자를	-9371
▁물건들	-9372
▁미래의	-9373
▁미련없	-9374
▁미리미	-9375
▁미치네	-9376
▁미화되	-9377
▁민망한	-9378
▁밀당일	-9379
▁밑바닥	-9380
▁바꾸면	-9381
▁바늘과	-9382
▁바닥을	-9383
▁바람난	-9384
▁바람좀	-9385
▁바래다	-9386
▁바보지	-9387
▁바보짓	-9388
▁바쁘네	-9389
▁바쁠때	-9390
▁반가울	-9391
▁반가워	-9392
▁반대가	-9393
▁반장을	-9394
▁받으신	-9395
▁발달된	-9396
▁발전할	-9397
▁발표는	-9398
▁밥이나	-9399
▁꼴	-9400
늦게	-9401
들로	-9402
▁간에	-9403
▁곳과	-9404
▁낫고	-9405
▁떨면	-9406
▁맛도	-9407
▁머물	-9408
▁먹방	-9409
▁모양	-9410
▁무게	-9411
▁뭐니	-9412
▁보증	-9413
▁붙여	-9414
▁세금	-9415
▁세죠	-9416
▁숙면	-9417
▁실력	-9418
▁심각	-9419
▁쓰네	-9420
▁쓰여	-9421
▁옥죄	-9422
▁잘된	-9423
▁크는	-9424
다는거	-9425
당하기	-9426
시니까	-9427
인지는	-9428
지는듯	-9429
찹하네	-9430
하기만	-9431
항했어	-9432
▁가리면	-9433
▁가보는	-9434
▁가스불	-9435
▁건강검	-9436
▁계기를	-9437
▁기분을	-9438
▁끄세요	-9439
▁놀리는	-9440
▁떠세요	-9441
▁떨리는	-9442
▁떨면서	-9443
▁말자고	-9444
▁말하기	-9445
▁모기가	-9446
▁못하죠	-9447
▁무게를	-9448
▁반했어	-9449
▁방심한	-9450
▁배우실	-9451
▁백업해	-9452
▁버려진	-9453
▁버티지	-9454
▁벌레를	-9455
▁베였어	-9456
▁베풀되	-9457
▁변신은	-9458
▁변하니	-9459
▁변한게	-9460
▁별다른	-9461
▁별로인	-9462
▁보기만	-9463
▁보내실	-9464
▁보낼까	-9465
▁보여드	-9466
▁보여서	-9467
▁보증금	-9468
▁복받은	-9469
▁복잡해	-9470
▁복제가	-9471
▁본받을	-9472
▁봄방학	-9473
▁봤으면	-9474
▁부담을	-9475
▁부담이	-9476
▁부딪히	-9477
▁부부가	-9478
▁부었어	-9479
▁부자되	-9480
▁분담을	-9481
▁분명한	-9482
▁분야를	-9483
▁불만이	-9484
▁불타오	-9485
▁불행을	-9486
▁붙잡을	-9487
▁블랙박	-9488
▁블루투	-9489
▁비가오	-9490
▁비난만	-9491
▁비밀로	-9492
▁비밀이	-9493
▁비싸다	-9494
▁비싸죠	-9495
▁비용은	-9496
▁비참한	-9497
▁빌게요	-9498
▁빌리면	-9499
▁줬	-9500
권이	-9501
라뇨	-9502
시작	-9503
왼손	-9504
켰어	-9505
▁14	-9506
▁귀찬	-9507
▁꿈도	-9508
▁답례	-9509
▁답변	-9510
▁돌담	-9511
▁돌싱	-9512
▁동상	-9513
▁문의	-9514
▁문콕	-9515
▁불륜	-9516
▁싫네	-9517
▁심부	-9518
▁심장	-9519
▁심정	-9520
▁심플	-9521
▁싸가	-9522
▁썸임	-9523
▁왼손	-9524
▁줄에	-9525
▁직설	-9526
가라는	-9527
급이야	-9528
끝났네	-9529
렸을까	-9530
압에는	-9531
좋을까	-9532
중이야	-9533
집에서	-9534
축해서	-9535
▁건강은	-9536
▁공부도	-9537
▁공부에	-9538
▁귀찬하	-9539
▁달에는	-9540
▁답례품	-9541
▁답이야	-9542
▁돈보다	-9543
▁돌담길	-9544
▁동아리	-9545
▁들어야	-9546
▁먼저일	-9547
▁문의해	-9548
▁뭘해도	-9549
▁받아도	-9550
▁빨리감	-9551
▁빵꾸난	-9552
▁빼놓지	-9553
▁빼니까	-9554
▁빼앗겼	-9555
▁사갈까	-9556
▁사과를	-9557
▁사귄지	-9558
▁사다리	-9559
▁사셔야	-9560
▁사실을	-9561
▁사야돼	-9562
▁사이도	-9563
▁사이트	-9564
▁사정을	-9565
▁사줄까	-9566
▁사진에	-9567
▁사진이	-9568
▁사표를	-9569
▁사회를	-9570
▁살려도	-9571
▁살려줘	-9572
▁살아도	-9573
▁상메가	-9574
▁상상을	-9575
▁상의도	-9576
▁생기기	-9577
▁생기지	-9578
▁생긴거	-9579
▁생생한	-9580
▁생활이	-9581
▁생활패	-9582
▁샤워가	-9583
▁샤워를	-9584
▁서운한	-9585
▁서점에	-9586
▁선풍기	-9587
▁섣부르	-9588
▁설레면	-9589
▁설레발	-9590
▁설렘을	-9591
▁성덕이	-9592
▁성별은	-9593
▁성숙한	-9594
▁성향이	-9595
▁세상의	-9596
▁세우지	-9597
▁소개해	-9598
▁소문은	-9599
▁규	-9600
니즘	-9601
닭발	-9602
배를	-9603
식장	-9604
팅을	-9605
▁계단	-9606
▁나감	-9607
▁누나	-9608
▁누룽	-9609
▁달리	-9610
▁닭발	-9611
▁반배	-9612
▁부네	-9613
▁성이	-9614
▁술주	-9615
▁실비	-9616
▁정색	-9617
▁젖어	-9618
▁카풀	-9619
▁피고	-9620
▁피맥	-9621
▁피씨	-9622
▁한적	-9623
값이죠	-9624
같으면	-9625
기네요	-9626
니즘을	-9627
때까지	-9628
론이죠	-9629
설팅을	-9630
앞이죠	-9631
해줬어	-9632
▁값이죠	-9633
▁고백도	-9634
▁고백해	-9635
▁날까지	-9636
▁날이야	-9637
▁남보다	-9638
▁남이죠	-9639
▁누룽지	-9640
▁늦어요	-9641
▁들지만	-9642
▁반배정	-9643
▁받지도	-9644
▁배에서	-9645
▁변하면	-9646
▁분배를	-9647
▁비슷해	-9648
▁선물할	-9649
▁소문일	-9650
▁소심한	-9651
▁소원이	-9652
▁소유가	-9653
▁소중히	-9654
▁속상할	-9655
▁속으로	-9656
▁손길이	-9657
▁손맛이	-9658
▁솔로인	-9659
▁솔직히	-9660
▁쇼핑은	-9661
▁쇼핑을	-9662
▁수상해	-9663
▁수십번	-9664
▁수영장	-9665
▁순간은	-9666
▁순간을	-9667
▁순서는	-9668
▁술주정	-9669
▁숨기는	-9670
▁숫자일	-9671
▁쉬려고	-9672
▁쉬었다	-9673
▁쉬운게	-9674
▁쉬운데	-9675
▁쉽지는	-9676
▁쉽지않	-9677
▁슈퍼문	-9678
▁스노클	-9679
▁스케일	-9680
▁스킨쉽	-9681
▁스타벅	-9682
▁스테끼	-9683
▁슬픔에	-9684
▁시계줄	-9685
▁시기였	-9686
▁시작되	-9687
▁시켜줘	-9688
▁시키지	-9689
▁식도염	-9690
▁식물을	-9691
▁식비가	-9692
▁식어서	-9693
▁신기해	-9694
▁신나게	-9695
▁신뢰가	-9696
▁신혼집	-9697
▁실내로	-9698
▁실망을	-9699
돌림	-9700
▁겠죠	-9701
▁관절	-9702
▁구걸	-9703
▁깊이	-9704
▁노동	-9705
▁놀라	-9706
▁눈빛	-9707
▁데에	-9708
▁따위	-9709
▁맞길	-9710
▁맞장	-9711
▁봤나	-9712
▁붙는	-9713
▁새가	-9714
▁새는	-9715
▁쉬울	-9716
▁쉬워	-9717
▁썸탈	-9718
▁양배	-9719
▁얼어	-9720
▁위안	-9721
▁위층	-9722
▁입맛	-9723
▁잡담	-9724
▁재가	-9725
▁재택	-9726
▁추세	-9727
▁편을	-9728
▁편히	-9729
닝할까	-9730
렇게나	-9731
선이죠	-9732
이기도	-9733
일이야	-9734
적인데	-9735
조절이	-9736
▁결혼도	-9737
▁결혼한	-9738
▁고민과	-9739
▁고민돼	-9740
▁고민만	-9741
▁고민은	-9742
▁관절염	-9743
▁기분일	-9744
▁노동을	-9745
▁대화도	-9746
▁둘만의	-9747
▁따돌림	-9748
▁맞장구	-9749
▁먹을래	-9750
▁믿는데	-9751
▁벌어요	-9752
▁수도가	-9753
▁실수한	-9754
▁실천이	-9755
▁싫어할	-9756
▁싫어해	-9757
▁싫지는	-9758
▁심부름	-9759
▁심하면	-9760
▁싶었던	-9761
▁싶은거	-9762
▁쌍커풀	-9763
▁쌓였어	-9764
▁쌓인다	-9765
▁쌩얼도	-9766
▁써놓고	-9767
▁썸부터	-9768
▁썸타다	-9769
▁썸탈때	-9770
▁썼는데	-9771
▁썼다가	-9772
▁쓴만큼	-9773
▁아까운	-9774
▁아깝지	-9775
▁아닌것	-9776
▁아들을	-9777
▁아련한	-9778
▁아물길	-9779
▁아쉬움	-9780
▁아이다	-9781
▁아이라	-9782
▁아이를	-9783
▁아파서	-9784
▁아프죠	-9785
▁아픈데	-9786
▁아플까	-9787
▁악몽과	-9788
▁악몽을	-9789
▁악수를	-9790
▁안돼나	-9791
▁안되면	-9792
▁안되서	-9793
▁안맞는	-9794
▁안아서	-9795
▁안오면	-9796
▁안전이	-9797
▁안하려	-9798
▁안한다	-9799
▁O	-9800
빙수	-9801
정말	-9802
조언	-9803
척해	-9804
추억	-9805
하를	-9806
▁감미	-9807
▁감이	-9808
▁감추	-9809
▁공급	-9810
▁공기	-9811
▁공동	-9812
▁공연	-9813
▁공채	-9814
▁그곳	-9815
▁날까	-9816
▁날도	-9817
▁날카	-9818
▁냈어	-9819
▁도움	-9820
▁발을	-9821
▁병이	-9822
▁브런	-9823
▁비례	-9824
▁비추	-9825
▁비키	-9826
▁비틀	-9827
▁비판	-9828
▁서비	-9829
▁서지	-9830
▁신선	-9831
▁신행	-9832
▁써야	-9833
▁애그	-9834
▁애써	-9835
▁애야	-9836
▁위를	-9837
▁차도	-9838
▁차임	-9839
▁차차	-9840
▁타로	-9841
▁할래	-9842
▁혼전	-9843
간다고	-9844
랐다가	-9845
보는데	-9846
보니까	-9847
했다가	-9848
▁공기정	-9849
▁다른반	-9850
▁당신과	-9851
▁된다는	-9852
▁따르기	-9853
▁멋있죠	-9854
▁모르니	-9855
▁받으시	-9856
▁브런치	-9857
▁비키니	-9858
▁비판의	-9859
▁시대는	-9860
▁신선한	-9861
▁안해서	-9862
▁않겠죠	-9863
▁않다고	-9864
▁않았기	-9865
▁않은데	-9866
▁알뜰한	-9867
▁알아내	-9868
▁알아주	-9869
▁알아줄	-9870
▁알았다	-9871
▁애정의	-9872
▁애정이	-9873
▁애착이	-9874
▁액션은	-9875
▁야근이	-9876
▁약먹기	-9877
▁약속잡	-9878
▁약이긴	-9879
▁양식을	-9880
▁어디다	-9881
▁어디를	-9882
▁어떨때	-9883
▁어른이	-9884
▁어린데	-9885
▁어장을	-9886
▁어째서	-9887
▁어쩌죠	-9888
▁어플은	-9889
▁언니가	-9890
▁얼었어	-9891
▁엄마께	-9892
▁엄청나	-9893
▁없거나	-9894
▁없거든	-9895
▁없었어	-9896
▁없이도	-9897
▁여기는	-9898
▁여기다	-9899
구마	-9900
내기	-9901
취를	-9902
텁텁	-9903
할땐	-9904
▁걸지	-9905
▁과에	-9906
▁길에	-9907
▁나름	-9908
▁달이	-9909
▁드러	-9910
▁드론	-9911
▁들여	-9912
▁소가	-9913
▁소홀	-9914
▁썼길	-9915
▁요가	-9916
▁의중	-9917
▁장기	-9918
▁장애	-9919
▁제길	-9920
▁제로	-9921
▁진리	-9922
▁짰어	-9923
▁취할	-9924
▁텀블	-9925
▁텁텁	-9926
▁할일	-9927
▁후덜	-9928
▁후아	-9929
걸지도	-9930
렴하게	-9931
재인가	-9932
주려고	-9933
하게도	-9934
▁간다면	-9935
▁겠네요	-9936
▁고구마	-9937
▁괜찮았	-9938
▁꿨는지	-9939
▁눈썹이	-9940
▁대하면	-9941
▁들여다	-9942
▁만나보	-9943
▁맛있죠	-9944
▁못하게	-9945
▁북받쳐	-9946
▁뻔하다	-9947
▁사이라	-9948
▁순간의	-9949
▁아니셨	-9950
▁여기만	-9951
▁여러번	-9952
▁여유는	-9953
▁역류성	-9954
▁연애끝	-9955
▁영상을	-9956
▁영화나	-9957
▁영화는	-9958
▁예감이	-9959
▁예뻐보	-9960
▁예뻐해	-9961
▁예의는	-9962
▁예측할	-9963
▁오나봐	-9964
▁오는지	-9965
▁오늘밤	-9966
▁오래걸	-9967
▁오래됐	-9968
▁오래전	-9969
▁오랜만	-9970
▁오로라	-9971
▁오르고	-9972
▁오빠랑	-9973
▁오셨길	-9974
▁오지마	-9975
▁옥상에	-9976
▁올라갈	-9977
▁완벽할	-9978
▁왜그래	-9979
▁왜이러	-9980
▁외제차	-9981
▁요구가	-9982
▁요리해	-9983
▁욕심에	-9984
▁욕심의	-9985
▁욕했어	-9986
▁욜로의	-9987
▁용서를	-9988
▁우리를	-9989
▁우연을	-9990
▁운명도	-9991
▁운명을	-9992
▁운명의	-9993
▁울었어	-9994
▁움직이	-9995
▁원망과	-9996
▁웬수죠	-9997
▁위기야	-9998
▁위대한	-9999
리나	-10000
맨날	-10001
부탁	-10002
탈출	-10003
태솔	-10004
▁가사	-10005
▁건네	-10006
▁건방	-10007
▁결단	-10008
▁결재	-10009
▁나길	-10010
▁날들	-10011
▁넣고	-10012
▁당구	-10013
▁대빵	-10014
▁떠서	-10015
▁먹다	-10016
▁먹든	-10017
▁먹죠	-10018
▁몸짓	-10019
▁못났	-10020
▁못내	-10021
▁못받	-10022
▁받니	-10023
▁방에	-10024
▁부는	-10025
▁부르	-10026
▁부추	-10027
▁사줄	-10028
▁살게	-10029
▁샜어	-10030
▁인강	-10031
▁전달	-10032
▁전생	-10033
▁조교	-10034
▁조깅	-10035
▁주눅	-10036
▁주소	-10037
▁주절	-10038
▁중의	-10039
▁추적	-10040
생한테	-10041
씹하면	-10042
장해요	-10043
▁갑시다	-10044
▁건방져	-10045
▁결단은	-10046
▁꾸준한	-10047
▁노력해	-10048
▁놓쳤어	-10049
▁당하고	-10050
▁당해요	-10051
▁대하고	-10052
▁드네요	-10053
▁모태솔	-10054
▁물어주	-10055
▁미치지	-10056
▁받아드	-10057
▁방탈출	-10058
▁부추기	-10059
▁상태를	-10060
▁세다고	-10061
▁속상한	-10062
▁위축된	-10063
▁위치가	-10064
▁윗몸일	-10065
▁유기견	-10066
▁유명한	-10067
▁유세부	-10068
▁은근히	-10069
▁은퇴후	-10070
▁은행에	-10071
▁음식이	-10072
▁음악감	-10073
▁음악이	-10074
▁응시는	-10075
▁응원해	-10076
▁의미는	-10077
▁의사표	-10078
▁의자를	-10079
▁의중을	-10080
▁의지할	-10081
▁이랬다	-10082
▁이러고	-10083
▁이런게	-10084
▁이뤄질	-10085
▁이뻐서	-10086
▁이뻐해	-10087
▁이사가	-10088
▁이사갈	-10089
▁이상할	-10090
▁이시간	-10091
▁이혼이	-10092
▁익숙해	-10093
▁인내의	-10094
▁인상을	-10095
▁인연을	-10096
▁인연인	-10097
▁인정받	-10098
▁일기를	-10099
괘씸	-10100
당을	-10101
서클	-10102
줍게	-10103
▁경과	-10104
▁괘씸	-10105
▁깨서	-10106
▁낙엽	-10107
▁날은	-10108
▁답인	-10109
▁되긴	-10110
▁말라	-10111
▁모의	-10112
▁모잘	-10113
▁모질	-10114
▁못된	-10115
▁무궁	-10116
▁무뚝	-10117
▁무죄	-10118
▁받게	-10119
▁볶는	-10120
▁비비	-10121
▁빨라	-10122
▁사투	-10123
▁잊은	-10124
▁장만	-10125
▁저요	-10126
▁저의	-10127
▁전형	-10128
▁주당	-10129
▁짐작	-10130
▁태산	-10131
▁한몸	-10132
▁한복	-10133
▁한살	-10134
곳으로	-10135
과하죠	-10136
는데도	-10137
도리는	-10138
되는게	-10139
인가를	-10140
인으로	-10141
죄에요	-10142
크서클	-10143
▁공부가	-10144
▁과에서	-10145
▁기분만	-10146
▁모잘라	-10147
▁무궁무	-10148
▁무뚝뚝	-10149
▁사귄다	-10150
▁사전도	-10151
▁사투리	-10152
▁상처준	-10153
▁소액이	-10154
▁수당을	-10155
▁수줍게	-10156
▁시간의	-10157
▁시간적	-10158
▁시도해	-10159
▁어울릴	-10160
▁연애였	-10161
▁예식장	-10162
▁이남자	-10163
▁일기예	-10164
▁일반인	-10165
▁일상을	-10166
▁일이길	-10167
▁일하시	-10168
▁읽는다	-10169
▁읽히나	-10170
▁입학식	-10171
▁있다니	-10172
▁있대요	-10173
▁잊겠어	-10174
▁잊기는	-10175
▁잊기로	-10176
▁잊어볼	-10177
▁자격은	-10178
▁자기를	-10179
▁자르는	-10180
▁자리에	-10181
▁자세가	-10182
▁자연의	-10183
▁자장가	-10184
▁자체는	-10185
▁자체에	-10186
▁작은것	-10187
▁잔하기	-10188
▁잘라요	-10189
▁잘생긴	-10190
▁잘해주	-10191
▁잘해준	-10192
▁잠기는	-10193
▁잠깐씩	-10194
▁잡혔어	-10195
▁잤더니	-10196
▁장갑을	-10197
▁장기자	-10198
▁장소에	-10199
감한	-10200
먼이	-10201
뮤니	-10202
있게	-10203
▁고데	-10204
▁고작	-10205
▁고파	-10206
▁기나	-10207
▁기뻐	-10208
▁기어	-10209
▁기적	-10210
▁기특	-10211
▁기한	-10212
▁기획	-10213
▁단짠	-10214
▁띄길	-10215
▁맛을	-10216
▁목감	-10217
▁몰아	-10218
▁무사	-10219
▁바본	-10220
▁바이	-10221
▁보답	-10222
▁부산	-10223
▁비타	-10224
▁소분	-10225
▁알람	-10226
▁오긴	-10227
▁오나	-10228
▁오니	-10229
▁오후	-10230
▁일까	-10231
▁일로	-10232
▁일요	-10233
▁일일	-10234
▁일하	-10235
▁정글	-10236
▁정동	-10237
▁정들	-10238
▁정수	-10239
▁지겹	-10240
▁지끈	-10241
▁지불	-10242
▁지식	-10243
▁지침	-10244
▁춥냐	-10245
▁헤헤	-10246
▁헹궈	-10247
뮤니티	-10248
박치기	-10249
수하고	-10250
우먼이	-10251
웠으면	-10252
캐볼까	-10253
▁고데기	-10254
▁기나긴	-10255
▁날씨에	-10256
▁남자로	-10257
▁맛을거	-10258
▁매세요	-10259
▁모르죠	-10260
▁목감기	-10261
▁민감한	-10262
▁비타민	-10263
▁아파트	-10264
▁알람을	-10265
▁알려주	-10266
▁연락과	-10267
▁연락올	-10268
▁오시면	-10269
▁이별로	-10270
▁이용해	-10271
▁일이랑	-10272
▁일하든	-10273
▁재미로	-10274
▁재밌대	-10275
▁재밌죠	-10276
▁재택근	-10277
▁재활용	-10278
▁재회후	-10279
▁저라도	-10280
▁저랬다	-10281
▁저와의	-10282
▁적성에	-10283
▁적응을	-10284
▁적응해	-10285
▁전공에	-10286
▁전기장	-10287
▁전달할	-10288
▁전부인	-10289
▁전생에	-10290
▁전세계	-10291
▁전세비	-10292
▁전인데	-10293
▁전해졌	-10294
▁전해질	-10295
▁전화할	-10296
▁정동진	-10297
▁정리는	-10298
▁정수리	-10299
인사	-10300
잔데	-10301
주행	-10302
타면	-10303
▁갚고	-10304
▁괴물	-10305
▁급해	-10306
▁기관	-10307
▁남동	-10308
▁남주	-10309
▁내도	-10310
▁내장	-10311
▁너그	-10312
▁너란	-10313
▁너와	-10314
▁다신	-10315
▁담담	-10316
▁만보	-10317
▁만의	-10318
▁만져	-10319
▁말들	-10320
▁말지	-10321
▁무료	-10322
▁방심	-10323
▁삶이	-10324
▁시럽	-10325
▁시린	-10326
▁시절	-10327
▁시청	-10328
▁싶고	-10329
▁싶을	-10330
▁쓰디	-10331
▁자식	-10332
▁자야	-10333
▁잘가	-10334
▁잘돼	-10335
▁잘래	-10336
▁잘참	-10337
▁최소	-10338
▁팀플	-10339
라는데	-10340
사이가	-10341
율주행	-10342
있는데	-10343
주는데	-10344
▁걸어도	-10345
▁관리가	-10346
▁괴물이	-10347
▁기관에	-10348
▁남잔데	-10349
▁남주긴	-10350
▁낮잠을	-10351
▁내봐요	-10352
▁동시에	-10353
▁땅만큼	-10354
▁소식에	-10355
▁시럽을	-10356
▁신을까	-10357
▁일시적	-10358
▁잘돼야	-10359
▁쟁여둔	-10360
▁정으로	-10361
▁젖었어	-10362
▁조건이	-10363
▁조심할	-10364
▁조절은	-10365
▁조취를	-10366
▁존댓말	-10367
▁졸린데	-10368
▁종목을	-10369
▁종아리	-10370
▁종이에	-10371
▁좋았어	-10372
▁주고도	-10373
▁주량은	-10374
▁죽는게	-10375
▁죽었다	-10376
▁죽인다	-10377
▁준비한	-10378
▁중간을	-10379
▁중간인	-10380
▁중독인	-10381
▁중요해	-10382
▁중이래	-10383
▁중이야	-10384
▁중인거	-10385
▁쥐꼬리	-10386
▁즐기면	-10387
▁증거라	-10388
▁증거일	-10389
▁증오로	-10390
▁지금이	-10391
▁지려고	-10392
▁지식이	-10393
▁지압을	-10394
▁지우는	-10395
▁지워야	-10396
▁지쳤을	-10397
▁지치게	-10398
▁지치고	-10399
▁샐	-10400
깐깐	-10401
낫네	-10402
있네	-10403
▁가르	-10404
▁가방	-10405
▁가봐	-10406
▁가습	-10407
▁가재	-10408
▁가출	-10409
▁같죠	-10410
▁깐깐	-10411
▁나라	-10412
▁나쁨	-10413
▁나옴	-10414
▁다한	-10415
▁담은	-10416
▁되요	-10417
▁마디	-10418
▁마치	-10419
▁마트	-10420
▁모음	-10421
▁배웠	-10422
▁본거	-10423
▁살랑	-10424
▁샐러	-10425
▁수만	-10426
▁수많	-10427
▁수박	-10428
▁수백	-10429
▁수순	-10430
▁실험	-10431
▁아휴	-10432
▁안열	-10433
▁안올	-10434
▁안정	-10435
▁안햇	-10436
▁연금	-10437
▁연기	-10438
▁외식	-10439
▁울어	-10440
▁잘게	-10441
▁하긴	-10442
▁하셔	-10443
▁하실	-10444
▁학과	-10445
▁학식	-10446
▁해놨	-10447
▁해봐	-10448
드레스	-10449
비예요	-10450
셨어요	-10451
시네요	-10452
▁가르쳐	-10453
▁가방은	-10454
▁가습기	-10455
▁갚아나	-10456
▁나네요	-10457
▁나라를	-10458
▁날이네	-10459
▁날인가	-10460
▁떠나요	-10461
▁마치길	-10462
▁배웠길	-10463
▁샐러드	-10464
▁설레서	-10465
▁수많은	-10466
▁수백번	-10467
▁시작과	-10468
▁실험실	-10469
▁아닌건	-10470
▁아세요	-10471
▁안햇다	-10472
▁알지만	-10473
▁애인이	-10474
▁외모에	-10475
▁의사가	-10476
▁이별과	-10477
▁쥬스는	-10478
▁지치면	-10479
▁지키기	-10480
▁직구로	-10481
▁직장과	-10482
▁진도가	-10483
▁진리죠	-10484
▁진부한	-10485
▁진실되	-10486
▁진지한	-10487
▁질리게	-10488
▁질리지	-10489
▁질린다	-10490
▁질린대	-10491
▁집어서	-10492
▁집착일	-10493
▁짝남을	-10494
▁짝녀의	-10495
▁짧아요	-10496
▁짧으면	-10497
▁쪼그만	-10498
▁쪽지를	-10499
▁홀	-10500
거로	-10501
마저	-10502
소연	-10503
솜씨	-10504
수한	-10505
어싱	-10506
풀이	-10507
▁거래	-10508
▁거리	-10509
▁것과	-10510
▁그놈	-10511
▁끊긴	-10512
▁나갈	-10513
▁나눴	-10514
▁나에	-10515
▁못나	-10516
▁사지	-10517
▁사치	-10518
▁살릴	-10519
▁살았	-10520
▁솜씨	-10521
▁신입	-10522
▁앞서	-10523
▁이길	-10524
▁이룰	-10525
▁이를	-10526
▁이마	-10527
▁이브	-10528
▁이쁘	-10529
▁이웃	-10530
▁이자	-10531
▁이치	-10532
▁있으	-10533
▁자랑	-10534
▁제철	-10535
▁주체	-10536
▁춘곤	-10537
▁품어	-10538
▁한쪽	-10539
이와요	-10540
잊혀지	-10541
▁거리두	-10542
▁경제력	-10543
▁관리를	-10544
▁기대로	-10545
▁끊긴지	-10546
▁나눴길	-10547
▁내냐구	-10548
▁못해본	-10549
▁베프랑	-10550
▁솜씨가	-10551
▁심하네	-10552
▁안나와	-10553
▁앞서서	-10554
▁이브네	-10555
▁이치죠	-10556
▁자라도	-10557
▁절제가	-10558
▁찌뿌둥	-10559
▁찌푸려	-10560
▁찍었어	-10561
▁찔까봐	-10562
▁차라도	-10563
▁차례인	-10564
▁차리는	-10565
▁차별을	-10566
▁차인후	-10567
▁차트를	-10568
▁착해서	-10569
▁참견해	-10570
▁참다가	-10571
▁창문을	-10572
▁찾아갔	-10573
▁찾아서	-10574
▁찾아야	-10575
▁찾아왔	-10576
▁채널을	-10577
▁책임이	-10578
▁챙겨줘	-10579
▁챙길게	-10580
▁처음만	-10581
▁처음은	-10582
▁천하를	-10583
▁철밥통	-10584
▁철벽치	-10585
▁청결한	-10586
▁체조를	-10587
▁체질이	-10588
▁쳇바퀴	-10589
▁쳐다봄	-10590
▁쳐다봐	-10591
▁초록초	-10592
▁총회에	-10593
▁추스리	-10594
▁추억도	-10595
▁추억만	-10596
▁추억을	-10597
▁추워서	-10598
▁추적추	-10599
▁짬	-10600
▁쪘	-10601
▁촉	-10602
▁툭	-10603
▁풍	-10604
끝이	-10605
나바	-10606
명빨	-10607
빌려	-10608
시킬	-10609
싶고	-10610
웃풋	-10611
으실	-10612
졌다	-10613
징글	-10614
▁걸렸	-10615
▁겪은	-10616
▁끊겼	-10617
▁낫지	-10618
▁놀려	-10619
▁덕수	-10620
▁돌봐	-10621
▁마카	-10622
▁선연	-10623
▁싶대	-10624
▁안날	-10625
▁않나	-10626
▁이발	-10627
▁자니	-10628
▁졸게	-10629
▁집사	-10630
▁짬뽕	-10631
▁한고	-10632
년동거	-10633
웃풋이	-10634
을까봐	-10635
▁기대에	-10636
▁기억할	-10637
▁덕수궁	-10638
▁돌아간	-10639
▁되도록	-10640
▁마음가	-10641
▁마카롱	-10642
▁보라고	-10643
▁부담돼	-10644
▁북치기	-10645
▁성분이	-10646
▁세우고	-10647
▁싸세요	-10648
▁야구장	-10649
▁여친과	-10650
▁연락하	-10651
▁연애할	-10652
▁울었네	-10653
▁웹툰이	-10654
▁조명빨	-10655
▁존중된	-10656
▁좋은건	-10657
▁줄이야	-10658
▁춘곤증	-10659
▁출근길	-10660
▁출발을	-10661
▁춥다고	-10662
▁충격이	-10663
▁충분할	-10664
▁충전기	-10665
▁충전도	-10666
▁충전할	-10667
▁취업에	-10668
▁취직이	-10669
▁취향이	-10670
▁친구야	-10671
▁친구일	-10672
▁친절한	-10673
▁친하게	-10674
▁카드가	-10675
▁카드값	-10676
▁카톡프	-10677
▁칼국수	-10678
▁캐볼까	-10679
▁커지는	-10680
▁커피도	-10681
▁커피에	-10682
▁컸으면	-10683
▁케빈과	-10684
▁케익을	-10685
▁코스를	-10686
▁코코넛	-10687
▁크겠죠	-10688
▁크루즈	-10689
▁키우기	-10690
▁타인과	-10691
▁타인의	-10692
▁탓인지	-10693
▁탔는데	-10694
▁태도가	-10695
▁태도에	-10696
▁태어날	-10697
▁터질거	-10698
▁턱시도	-10699
마려	-10700
보까	-10701
이기	-10702
토닉	-10703
프다	-10704
피스	-10705
하구	-10706
▁거릴	-10707
▁꿰메	-10708
▁났네	-10709
▁달랐	-10710
▁대인	-10711
▁듣니	-10712
▁말랭	-10713
▁몸값	-10714
▁변기	-10715
▁성급	-10716
▁안내	-10717
▁연연	-10718
▁예를	-10719
▁왔나	-10720
▁정량	-10721
▁차곡	-10722
▁초조	-10723
▁취급	-10724
머신이	-10725
소기업	-10726
해줘요	-10727
▁결정이	-10728
▁그래봤	-10729
▁높겠죠	-10730
▁대인배	-10731
▁될수있	-10732
▁말랭이	-10733
▁맞다고	-10734
▁멋있게	-10735
▁몸값을	-10736
▁받아요	-10737
▁사귀게	-10738
▁상대의	-10739
▁상해요	-10740
▁생각의	-10741
▁설명이	-10742
▁소식을	-10743
▁속도가	-10744
▁손톱이	-10745
▁시작도	-10746
▁신기한	-10747
▁알아요	-10748
▁옥죄지	-10749
▁온전한	-10750
▁원피스	-10751
▁자유가	-10752
▁잘살고	-10753
▁정도면	-10754
▁좋거나	-10755
▁좋아졌	-10756
▁지켜만	-10757
▁차곡차	-10758
▁취하기	-10759
▁텀블러	-10760
▁투자한	-10761
▁특이한	-10762
▁틀어도	-10763
▁티나요	-10764
▁판단은	-10765
▁퍼가요	-10766
▁편린일	-10767
▁편인데	-10768
▁편지를	-10769
▁편하죠	-10770
▁편한거	-10771
▁평가원	-10772
▁평소의	-10773
▁평온해	-10774
▁포근포	-10775
▁포기안	-10776
▁포장이	-10777
▁폭력은	-10778
▁폭식증	-10779
▁표정이	-10780
▁표현할	-10781
▁풀려고	-10782
▁풀어요	-10783
▁프로젝	-10784
▁프사가	-10785
▁프사랑	-10786
▁프사로	-10787
▁프사를	-10788
▁프사에	-10789
▁피곤할	-10790
▁피로를	-10791
▁피씨방	-10792
▁피어싱	-10793
▁피우는	-10794
▁피해자	-10795
▁필수는	-10796
▁필연이	-10797
▁핑계로	-10798
▁하나만	-10799
▁낀	-10800
▁빡	-10801
▁뺏	-10802
▁썩	-10803
▁썰	-10804
▁얇	-10805
견례	-10806
구가	-10807
구만	-10808
모호	-10809
새끼	-10810
작용	-10811
차단	-10812
초대	-10813
화식	-10814
▁걸음	-10815
▁금물	-10816
▁기계	-10817
▁놓침	-10818
▁돈버	-10819
▁두통	-10820
▁빡빡	-10821
▁뻔뻔	-10822
▁사주	-10823
▁서글	-10824
▁소모	-10825
▁식초	-10826
▁아른	-10827
▁않다	-10828
▁양면	-10829
▁취뽀	-10830
는데요	-10831
언하는	-10832
중인데	-10833
초대사	-10834
칩니다	-10835
해서도	-10836
화식물	-10837
▁같이도	-10838
▁구두로	-10839
▁구하셨	-10840
▁남겨진	-10841
▁내려올	-10842
▁돈버는	-10843
▁두통약	-10844
▁따지는	-10845
▁때라고	-10846
▁마다할	-10847
▁모두가	-10848
▁부작용	-10849
▁비슷한	-10850
▁사랑인	-10851
▁사랑자	-10852
▁사주를	-10853
▁상견례	-10854
▁식으로	-10855
▁실력이	-10856
▁양면과	-10857
▁어떻해	-10858
▁재가입	-10859
▁차가운	-10860
▁카페에	-10861
▁하객이	-10862
▁하는걸	-10863
▁하늘은	-10864
▁하니까	-10865
▁하셔도	-10866
▁하셨나	-10867
▁하시면	-10868
▁학교갈	-10869
▁학기를	-10870
▁학벌이	-10871
▁학원에	-10872
▁한계야	-10873
▁한계에	-10874
▁한눈팔	-10875
▁한때는	-10876
▁한마디	-10877
▁한몸이	-10878
▁한번에	-10879
▁한번의	-10880
▁한사람	-10881
▁한적한	-10882
▁할지도	-10883
▁해결방	-10884
▁해결해	-10885
▁해보면	-10886
▁해줬어	-10887
▁했나요	-10888
▁행동을	-10889
▁행동일	-10890
▁행복의	-10891
▁행실을	-10892
▁향이죠	-10893
▁허례허	-10894
▁허리띠	-10895
▁허전함	-10896
▁허전해	-10897
▁헐었어	-10898
▁헤어나	-10899
▁,	-10900
▁쌈	-10901
던게	-10902
듯할	-10903
볼께	-10904
야돼	-10905
주네	-10906
▁가죠	-10907
▁기차	-10908
▁낫다	-10909
▁마냥	-10910
▁맘은	-10911
▁맞음	-10912
▁몸매	-10913
▁무난	-10914
▁보드	-10915
▁분석	-10916
▁산에	-10917
▁쉬게	-10918
▁이후	-10919
▁있니	-10920
▁재테	-10921
▁지기	-10922
▁타도	-10923
▁타임	-10924
▁해낸	-10925
가야지	-10926
진해요	-10927
챘을까	-10928
향인지	-10929
▁건들이	-10930
▁겠지요	-10931
▁몇일째	-10932
▁뿌듯할	-10933
▁사춘기	-10934
▁산이네	-10935
▁성장할	-10936
▁싫으면	-10937
▁아깝다	-10938
▁여친을	-10939
▁오빠들	-10940
▁온다면	-10941
▁일방적	-10942
▁재테크	-10943
▁정리도	-10944
▁조금의	-10945
▁준비는	-10946
▁준비해	-10947
▁헤어졋	-10948
▁헬스장	-10949
▁헷갈릴	-10950
▁현관문	-10951
▁현금만	-10952
▁현금이	-10953
▁현명한	-10954
▁현실에	-10955
▁현실은	-10956
▁형편에	-10957
▁호박씨	-10958
▁혼났어	-10959
▁혼자있	-10960
▁혼전순	-10961
▁홈쇼핑	-10962
▁화가나	-10963
▁화나고	-10964
▁화내게	-10965
▁화내는	-10966
▁화내지	-10967
▁화냈어	-10968
▁화요일	-10969
▁화장을	-10970
▁화풀이	-10971
▁확신을	-10972
▁환승이	-10973
▁환심을	-10974
▁활기찬	-10975
▁홧김에	-10976
▁회복할	-10977
▁회사랑	-10978
▁회사를	-10979
▁후덜덜	-10980
▁후련할	-10981
▁후회돼	-10982
▁휴식에	-10983
▁휴양지	-10984
▁흐려지	-10985
▁흘렀네	-10986
▁희망고	-10987
▁힘겨울	-10988
▁힘내려	-10989
▁힘드신	-10990
▁힘든가	-10991
▁힘들것	-10992
▁힘들긴	-10993
▁힘들만	-10994
▁힘들줄	-10995
개월간의	-10996
개월이네	-10997
거같은데	-10998
거리확보	-10999
.!	-11000
?.	-11001
▁균	-11002
▁덧	-11003
▁듬	-11004
▁숏	-11005
간에	-11006
구죠	-11007
댓글	-11008
던곳	-11009
들요	-11010
문서	-11011
본적	-11012
상화	-11013
없죠	-11014
었대	-11015
용이	-11016
우길	-11017
인척	-11018
지않	-11019
칠까	-11020
하내	-11021
▁ᅮᅮ	-11022
▁고시	-11023
▁귀차	-11024
▁기부	-11025
▁기쁜	-11026
▁대만	-11027
▁댓글	-11028
▁몇명	-11029
▁발등	-11030
▁밤이	-11031
▁보관	-11032
▁빠진	-11033
▁숏컷	-11034
▁실로	-11035
▁씨앗	-11036
▁우정	-11037
▁일정	-11038
▁진출	-11039
▁차리	-11040
▁최우	-11041
▁침착	-11042
▁하품	-11043
움에는	-11044
▁갈만한	-11045
▁균형이	-11046
▁그런건	-11047
▁내리길	-11048
▁뉴스는	-11049
▁도구죠	-11050
▁동문서	-11051
▁떠는거	-11052
▁라면봉	-11053
▁말문이	-11054
▁못난거	-11055
▁무리에	-11056
▁바다는	-11057
▁벗어날	-11058
▁수없이	-11059
▁싫은가	-11060
▁없다가	-11061
▁잘못한	-11062
▁잘하실	-11063
▁정도를	-11064
▁좋은차	-11065
▁차리래	-11066
▁채우길	-11067
▁체육복	-11068
▁트집잡	-11069
▁핸드백	-11070
과적일까	-11071
기사님들	-11072
끄러워서	-11073
났습니다	-11074
다니면서	-11075
데이트가	-11076
되겠어요	-11077
려나봐요	-11078
려합니다	-11079
록하네요	-11080
르나봐요	-11081
리는것도	-11082
린다는게	-11083
만이라도	-11084
방향인지	-11085
버려야지	-11086
보고싶어	-11087
봐보세요	-11088
쁘겠어요	-11089
상이라고	-11090
상입니다	-11091
생각나네	-11092
섹스리스	-11093
수있어요	-11094
수있을까	-11095
스러우면	-11096
스타일이	-11097
식이에요	-11098
어야겠다	-11099
▁?	-11100
▁깬	-11101
▁깼	-11102
▁켠	-11103
겟죠	-11104
달반	-11105
레질	-11106
밭길	-11107
스런	-11108
심리	-11109
절할	-11110
조리	-11111
크림	-11112
터를	-11113
펑펑	-11114
▁닮아	-11115
▁땜에	-11116
▁버린	-11117
▁보죠	-11118
▁본다	-11119
▁살살	-11120
▁손이	-11121
▁없음	-11122
▁오싹	-11123
▁졌어	-11124
▁중이	-11125
▁차용	-11126
▁축가	-11127
▁틈틈	-11128
▁펑펑	-11129
▁한지	-11130
분크림	-11131
쁜건지	-11132
스터를	-11133
싸해도	-11134
액형이	-11135
었다고	-11136
에서는	-11137
용품이	-11138
으키기	-11139
▁가볼까	-11140
▁광합성	-11141
▁너무힘	-11142
▁놀까요	-11143
▁누군가	-11144
▁다른일	-11145
▁대리님	-11146
▁멋있어	-11147
▁못하네	-11148
▁받겠지	-11149
▁생기죠	-11150
▁실행에	-11151
▁언제가	-11152
▁없었던	-11153
▁예민함	-11154
▁오싹한	-11155
▁우리반	-11156
▁이겨야	-11157
▁인복이	-11158
▁일정을	-11159
▁자꾸만	-11160
▁자세요	-11161
▁작아져	-11162
▁잘가요	-11163
▁집주인	-11164
▁차용증	-11165
▁취향을	-11166
▁커피를	-11167
▁크기가	-11168
▁틈틈이	-11169
나쁜건지	-11170
었는가를	-11171
올랐다가	-11172
울컥하네	-11173
으로부터	-11174
의한다면	-11175
이너에게	-11176
이어야죠	-11177
이었나봐	-11178
인노래방	-11179
일째인데	-11180
읽씹하면	-11181
적이어도	-11182
졌습니다	-11183
초대사량	-11184
추위래요	-11185
커페이스	-11186
코스터를	-11187
포인트가	-11188
하답니다	-11189
하려니까	-11190
하셨네요	-11191
하지만은	-11192
해야겠죠	-11193
해야하고	-11194
해야할듯	-11195
해야해요	-11196
해주는게	-11197
해주면서	-11198
해주지는	-11199
go	-11200
▁쩌	-11201
▁탐	-11202
▁팬	-11203
강차	-11204
달까	-11205
라구	-11206
려야	-11207
메라	-11208
씰룩	-11209
용에	-11210
자료	-11211
줌마	-11212
지망	-11213
째깍	-11214
쿠폰	-11215
크가	-11216
▁굴면	-11217
▁나로	-11218
▁달째	-11219
▁대신	-11220
▁동전	-11221
▁문열	-11222
▁손을	-11223
▁쉴만	-11224
▁쩌는	-11225
▁차면	-11226
▁쿠폰	-11227
▁팬미	-11228
▁편두	-11229
▁향기	-11230
시켜야	-11231
자료를	-11232
하달까	-11233
하시길	-11234
하지가	-11235
▁구분짓	-11236
▁꿈이었	-11237
▁끝나네	-11238
▁남는건	-11239
▁다녀와	-11240
▁당황할	-11241
▁돌리고	-11242
▁동전의	-11243
▁디져트	-11244
▁떠나지	-11245
▁막말을	-11246
▁목적은	-11247
▁문열다	-11248
▁상관이	-11249
▁상대와	-11250
▁생강차	-11251
▁설레지	-11252
▁센스가	-11253
▁순수한	-11254
▁쉬시길	-11255
▁아이구	-11256
▁아줌마	-11257
▁안주랑	-11258
▁얘기가	-11259
▁이것저	-11260
▁진실로	-11261
▁카메라	-11262
▁팬미팅	-11263
▁편두통	-11264
▁행운일	-11265
▁활용에	-11266
범죄에요	-11267
했어야죠	-11268
했었는데	-11269
화식물도	-11270
▁....	-11271
▁가게에서	-11272
▁가능성을	-11273
▁가능한지	-11274
▁가라앉혀	-11275
▁가시밭길	-11276
▁가야겠다	-11277
▁가야겠지	-11278
▁가장해서	-11279
▁가져오면	-11280
▁가족같은	-11281
▁가족관계	-11282
▁가족끼리	-11283
▁각질제거	-11284
▁간단하고	-11285
▁간절하네	-11286
▁감정기복	-11287
▁감출길이	-11288
▁강렬하고	-11289
▁강박관념	-11290
▁강제종료	-11291
▁같은데도	-11292
▁같은데요	-11293
▁개강이다	-11294
▁거라는데	-11295
▁거였구나	-11296
▁거짓말일	-11297
▁건강검진	-11298
▁건강에도	-11299
▁압	-11300
같네	-11301
거란	-11302
골이	-11303
금통	-11304
된거	-11305
머코	-11306
무슨	-11307
전과	-11308
짤릴	-11309
찌개	-11310
처녀	-11311
청약	-11312
▁가며	-11313
▁구꺼	-11314
▁그후	-11315
▁넘을	-11316
▁막히	-11317
▁보안	-11318
▁불쌍	-11319
▁비우	-11320
▁짤릴	-11321
▁추울	-11322
▁취준	-11323
▁타입	-11324
▁후배	-11325
날텐데	-11326
다니기	-11327
보는건	-11328
서부터	-11329
야할지	-11330
▁같음을	-11331
▁걱정일	-11332
▁구꺼비	-11333
▁기회일	-11334
▁끝나가	-11335
▁날에만	-11336
▁노처녀	-11337
▁다른걸	-11338
▁떨려요	-11339
▁무뎌져	-11340
▁뭐부터	-11341
▁보안상	-11342
▁보여도	-11343
▁상상은	-11344
▁심하대	-11345
▁아니긴	-11346
▁압니다	-11347
▁언어도	-11348
▁욕하는	-11349
▁위험할	-11350
▁유머코	-11351
▁이전과	-11352
▁저금통	-11353
▁코골이	-11354
▁편해요	-11355
서점에서	-11356
셔야해요	-11357
▁건조하네	-11358
▁걷다보면	-11359
▁걸릴지도	-11360
▁걸으세요	-11361
▁검색해서	-11362
▁것이겠죠	-11363
▁것이라면	-11364
▁게스트하	-11365
▁격려하고	-11366
▁견과류나	-11367
▁결정이길	-11368
▁결정적인	-11369
▁결정했어	-11370
▁결혼생활	-11371
▁결혼에는	-11372
▁결혼하는	-11373
▁결혼했어	-11374
▁경우예요	-11375
▁경조사는	-11376
▁계속해도	-11377
▁계약했어	-11378
▁계획대로	-11379
▁고기어도	-11380
▁고르세요	-11381
▁고마워할	-11382
▁고민이나	-11383
▁고민이네	-11384
▁고민인지	-11385
▁고민하는	-11386
▁고백한다	-11387
▁고백할걸	-11388
▁고백할까	-11389
▁고치려고	-11390
▁고치면서	-11391
▁고통받고	-11392
▁골랐나봐	-11393
▁공간으로	-11394
▁공복이라	-11395
▁공부하길	-11396
▁공부해야	-11397
▁공채때는	-11398
▁공통점을	-11399
▁삔	-11400
▁쑤	-11401
곡에	-11402
깃만	-11403
들만	-11404
러운	-11405
면에	-11406
문제	-11407
붓고	-11408
뷔페	-11409
소가	-11410
여의	-11411
적을	-11412
출할	-11413
취제	-11414
카오	-11415
턴을	-11416
히지	-11417
▁구상	-11418
▁꼬까	-11419
▁내길	-11420
▁다육	-11421
▁단발	-11422
▁더디	-11423
▁못가	-11424
▁반이	-11425
▁발레	-11426
▁뷔페	-11427
▁소극	-11428
▁순진	-11429
▁쑤셔	-11430
▁열쇠	-11431
▁잘맞	-11432
▁티냈	-11433
긴하긴	-11434
꺼에요	-11435
년여의	-11436
카오톡	-11437
탈취제	-11438
▁그리웠	-11439
▁꼬까옷	-11440
▁남겠죠	-11441
▁났는지	-11442
▁다육이	-11443
▁더디게	-11444
▁됐다고	-11445
▁말보다	-11446
▁무섭죠	-11447
▁받았다	-11448
▁방면에	-11449
▁분출할	-11450
▁서적을	-11451
▁설레게	-11452
▁시선이	-11453
▁옷깃만	-11454
▁유료로	-11455
▁이길이	-11456
▁일해요	-11457
▁치우고	-11458
▁폰게임	-11459
▁힘들때	-11460
▁공무원이	-11461
▁관계에서	-11462
▁관찰하고	-11463
▁괜찮다고	-11464
▁괜찮대요	-11465
▁괜찮아도	-11466
▁교직이수	-11467
▁교환학생	-11468
▁구매하면	-11469
▁구하세요	-11470
▁궁금할만	-11471
▁권유하고	-11472
▁귀여워요	-11473
▁귀엽다고	-11474
▁귀찮아서	-11475
▁귀찮으면	-11476
▁그곳에서	-11477
▁그나저나	-11478
▁그대로를	-11479
▁그대로인	-11480
▁그래봤자	-11481
▁그러다가	-11482
▁그러든지	-11483
▁그런거지	-11484
▁그럼에도	-11485
▁그렇겠지	-11486
▁그렇기도	-11487
▁그리워서	-11488
▁그립지만	-11489
▁그만두고	-11490
▁그만둬서	-11491
▁그만할래	-11492
▁그사람도	-11493
▁극복하고	-11494
▁극복하는	-11495
▁글자라도	-11496
▁기념일에	-11497
▁기념일을	-11498
▁기다렸어	-11499
▁넥	-11500
▁를	-11501
같다	-11502
그란	-11503
눅해	-11504
는것	-11505
닥쳐	-11506
디오	-11507
마음	-11508
보길	-11509
온대	-11510
을수	-11511
피성	-11512
했대	-11513
▁개째	-11514
▁거창	-11515
▁고와	-11516
▁넥타	-11517
▁다운	-11518
▁닥쳐	-11519
▁달래	-11520
▁못믿	-11521
▁부려	-11522
▁찼던	-11523
▁황사	-11524
것만은	-11525
눅눅해	-11526
용카드	-11527
▁고와야	-11528
▁귀찮네	-11529
▁나아요	-11530
▁넥타이	-11531
▁눅눅해	-11532
▁닥쳐올	-11533
▁도피성	-11534
▁돌보길	-11535
▁동그란	-11536
▁만들까	-11537
▁살기가	-11538
▁새치가	-11539
▁아물어	-11540
▁안정을	-11541
▁어장의	-11542
▁어제가	-11543
▁외모는	-11544
▁인형뽑	-11545
▁일부러	-11546
▁일하고	-11547
▁있지는	-11548
▁체력에	-11549
▁향하고	-11550
▁흘렸어	-11551
우스에서	-11552
▁가니까요	-11553
▁감사해요	-11554
▁감정들이	-11555
▁거창하지	-11556
▁계절이죠	-11557
▁공허하네	-11558
▁공황장애	-11559
▁기니까요	-11560
▁기다리다	-11561
▁기대하게	-11562
▁기분이야	-11563
▁기쁨이죠	-11564
▁기술이죠	-11565
▁기억들이	-11566
▁기억으로	-11567
▁기억하고	-11568
▁기우제를	-11569
▁기울이는	-11570
▁기울이지	-11571
▁기원해요	-11572
▁기적이죠	-11573
▁긴장하지	-11574
▁길거리에	-11575
▁길어진다	-11576
▁깔끔한게	-11577
▁깜빡거려	-11578
▁깨졌는데	-11579
▁꼬였는지	-11580
▁꾸준한게	-11581
▁꿈같았던	-11582
▁끊겼는데	-11583
▁끊었으면	-11584
▁끊으라고	-11585
▁끊으세요	-11586
▁끝났는데	-11587
▁끝내시길	-11588
▁끝이났네	-11589
▁끝이라고	-11590
▁끝인가봐	-11591
▁나가야지	-11592
▁나빴네요	-11593
▁나아지지	-11594
▁나오기도	-11595
▁나오는데	-11596
▁나온다니	-11597
▁나온대요	-11598
▁나이테죠	-11599
▁C	-11600
▁띵	-11601
간당	-11602
경우	-11603
다네	-11604
론가	-11605
분만	-11606
어린	-11607
외비	-11608
폭력	-11609
호팬	-11610
▁CC	-11611
▁가혹	-11612
▁골인	-11613
▁긴여	-11614
▁두지	-11615
▁땡겨	-11616
▁미쳐	-11617
▁법적	-11618
▁봄에	-11619
▁싫대	-11620
▁쌓는	-11621
▁얽힌	-11622
▁웃기	-11623
▁잘될	-11624
▁장수	-11625
▁진전	-11626
▁콕콕	-11627
▁피지	-11628
보이네	-11629
소리가	-11630
시다니	-11631
▁과외비	-11632
▁기운을	-11633
▁꿈같은	-11634
▁나대로	-11635
▁나쁘게	-11636
▁떨어요	-11637
▁받아줄	-11638
▁배려가	-11639
▁비싼데	-11640
▁시원할	-11641
▁어이가	-11642
▁얼굴만	-11643
▁인사를	-11644
▁주름도	-11645
▁즐겁죠	-11646
▁진전이	-11647
▁춥지도	-11648
▁통화를	-11649
▁가게부를	-11650
▁그런건지	-11651
▁김치볶음	-11652
▁깔끔하게	-11653
▁나타나면	-11654
▁낙담하지	-11655
▁난방비가	-11656
▁난방으로	-11657
▁날거예요	-11658
▁날려버리	-11659
▁날이예요	-11660
▁날인지는	-11661
▁날카로워	-11662
▁남았다면	-11663
▁남은걸까	-11664
▁남이라는	-11665
▁남자들이	-11666
▁남자와의	-11667
▁남자인지	-11668
▁남편이랑	-11669
▁남편한테	-11670
▁낫겠네요	-11671
▁났나봐요	-11672
▁내려놓는	-11673
▁냉동실에	-11674
▁넣으세요	-11675
▁노력하지	-11676
▁노트북은	-11677
▁녹음이나	-11678
▁놀러갈까	-11679
▁농구하다	-11680
▁농담처럼	-11681
▁누구와도	-11682
▁누락됐어	-11683
▁눈꺼풀의	-11684
▁느껴보고	-11685
▁느껴질때	-11686
▁느끼는게	-11687
▁늘거예요	-11688
▁늙어가고	-11689
▁능력이긴	-11690
▁다가가고	-11691
▁다가가면	-11692
▁다가옴을	-11693
▁다그치지	-11694
▁다녀와요	-11695
▁다니거나	-11696
▁다니면서	-11697
▁다니세요	-11698
▁다르지만	-11699
▁댄	-11700
▁송	-11701
림도	-11702
부분	-11703
분씩	-11704
수로	-11705
언제	-11706
이게	-11707
이런	-11708
인은	-11709
질러	-11710
패딩	-11711
하냐	-11712
▁가네	-11713
▁댄디	-11714
▁디저	-11715
▁또다	-11716
▁먹게	-11717
▁번복	-11718
▁송장	-11719
▁술기	-11720
▁어쨌	-11721
▁읽고	-11722
▁잠은	-11723
▁청약	-11724
▁하길	-11725
▁해선	-11726
스럽다	-11727
싶어요	-11728
▁공부한	-11729
▁대부분	-11730
▁되는줄	-11731
▁들겠지	-11732
▁디저트	-11733
▁또다시	-11734
▁롱패딩	-11735
▁먹는게	-11736
▁못잊을	-11737
▁문질러	-11738
▁밀당을	-11739
▁사랑꾼	-11740
▁술기운	-11741
▁쓰세요	-11742
▁아침밥	-11743
▁어쨌든	-11744
▁여자들	-11745
▁여자야	-11746
▁온수로	-11747
▁옵니다	-11748
▁음악을	-11749
▁이용당	-11750
▁전하면	-11751
▁조금은	-11752
▁지나야	-11753
▁집에만	-11754
▁편하네	-11755
▁감정들을	-11756
▁계속되는	-11757
▁괴롭히는	-11758
▁끝내는게	-11759
▁남나봐요	-11760
▁뇌세포에	-11761
▁다정한게	-11762
▁다크서클	-11763
▁다했는데	-11764
▁다했다면	-11765
▁단둘이는	-11766
▁단짠으로	-11767
▁닫으세요	-11768
▁달라질까	-11769
▁답답하고	-11770
▁당황해서	-11771
▁대단해요	-11772
▁대답할지	-11773
▁대우하는	-11774
▁대청소를	-11775
▁덤덤하게	-11776
▁데이트로	-11777
▁데이트에	-11778
▁데이트요	-11779
▁도망가고	-11780
▁도서관도	-11781
▁도와주세	-11782
▁도와줄까	-11783
▁독특함을	-11784
▁돌아가서	-11785
▁돌아보는	-11786
▁돌아보면	-11787
▁돌아서지	-11788
▁돌아오기	-11789
▁동거하고	-11790
▁동거하다	-11791
▁동거해도	-11792
▁동물이죠	-11793
▁동생으로	-11794
▁동심으로	-11795
▁되가는데	-11796
▁되는건지	-11797
▁되었나요	-11798
▁되었네요	-11799
▁!	-11800
▁빽	-11801
걸리	-11802
고는	-11803
빼고	-11804
서를	-11805
싫어	-11806
월의	-11807
있다	-11808
힌트	-11809
▁걔도	-11810
▁내릴	-11811
▁돌릴	-11812
▁번의	-11813
▁뿐이	-11814
▁애키	-11815
▁우는	-11816
▁질거	-11817
▁처량	-11818
▁컴터	-11819
▁타게	-11820
▁하곤	-11821
▁힌트	-11822
속으로	-11823
오겠죠	-11824
▁간식도	-11825
▁그런게	-11826
▁납니다	-11827
▁데려가	-11828
▁많다고	-11829
▁매몰찬	-11830
▁무너짐	-11831
▁변한것	-11832
▁보험료	-11833
▁부자님	-11834
▁생겼대	-11835
▁세탁소	-11836
▁술자리	-11837
▁싸움이	-11838
▁쓰이네	-11839
▁애절한	-11840
▁애키우	-11841
▁양배추	-11842
▁여자의	-11843
▁연애만	-11844
▁첫눈에	-11845
▁침대와	-11846
▁피하지	-11847
▁그럴때는	-11848
▁나가기가	-11849
▁나눠봐요	-11850
▁되었는데	-11851
▁된답니다	-11852
▁두근거려	-11853
▁두셨군요	-11854
▁뒤처지는	-11855
▁뒷감당은	-11856
▁뒹굴뒹글	-11857
▁드레스룸	-11858
▁드시는거	-11859
▁드시라고	-11860
▁득템했길	-11861
▁든든하게	-11862
▁듣고싶어	-11863
▁들어가요	-11864
▁들어와서	-11865
▁들었는데	-11866
▁들었어요	-11867
▁들으세요	-11868
▁들텐데요	-11869
▁디저트는	-11870
▁따라오게	-11871
▁따라하게	-11872
▁따야하나	-11873
▁때문이죠	-11874
▁때입니다	-11875
▁떠나갔네	-11876
▁떠나갔어	-11877
▁떠나보내	-11878
▁떠나세요	-11879
▁떠난다는	-11880
▁떠날까봐	-11881
▁떠오르네	-11882
▁떨리네요	-11883
▁떨리더라	-11884
▁떨어지지	-11885
▁뛰어넘는	-11886
▁뛰어넘을	-11887
▁뜨끈하게	-11888
▁라디오를	-11889
▁라면봉지	-11890
▁롱디인데	-11891
▁마스크팩	-11892
▁마시세요	-11893
▁마음가짐	-11894
▁마음만은	-11895
▁마음에도	-11896
▁마음이죠	-11897
▁마음처럼	-11898
▁마주쳤어	-11899
▁걍	-11900
거다	-11901
다녀	-11902
모두	-11903
번째	-11904
보단	-11905
슬려	-11906
아플	-11907
오일	-11908
음만	-11909
이란	-11910
증이	-11911
타기	-11912
휴가	-11913
▁40	-11914
▁AB	-11915
▁갖는	-11916
▁과제	-11917
▁단수	-11918
▁덜어	-11919
▁막고	-11920
▁말려	-11921
▁봐야	-11922
▁실컷	-11923
▁입소	-11924
▁잡을	-11925
▁주위	-11926
▁출국	-11927
▁탄탄	-11928
그램을	-11929
쓰는게	-11930
▁감정컨	-11931
▁거슬려	-11932
▁건조기	-11933
▁겁이나	-11934
▁경험은	-11935
▁그것은	-11936
▁나을가	-11937
▁누나가	-11938
▁되나요	-11939
▁마시러	-11940
▁먹을게	-11941
▁물증이	-11942
▁스키탈	-11943
▁아프면	-11944
▁않다면	-11945
▁오는데	-11946
▁이라고	-11947
▁장난친	-11948
▁좋은점	-11949
▁중간이	-11950
▁지울까	-11951
▁짝남의	-11952
▁타세요	-11953
▁풀렸죠	-11954
여행이죠	-11955
▁괜찮다가	-11956
▁구꺼비집	-11957
▁귀찮은데	-11958
▁끝냈는데	-11959
▁나타나죠	-11960
▁남자인데	-11961
▁놀았는데	-11962
▁느낌이길	-11963
▁마주하는	-11964
▁마찬가지	-11965
▁마침표가	-11966
▁막장으로	-11967
▁만나는거	-11968
▁만나면서	-11969
▁만나보고	-11970
▁만나야죠	-11971
▁만나지말	-11972
▁만드세요	-11973
▁만족하는	-11974
▁만족하면	-11975
▁많겠어요	-11976
▁많나봐요	-11977
▁많아졌어	-11978
▁많아지는	-11979
▁많았으면	-11980
▁말보다는	-11981
▁말아야지	-11982
▁말이라도	-11983
▁말인가요	-11984
▁말하면서	-11985
▁말해주죠	-11986
▁말했으면	-11987
▁맘같으면	-11988
▁맘에서도	-11989
▁맛있는거	-11990
▁맛있을거	-11991
▁망설여지	-11992
▁망하는건	-11993
▁맞장구쳐	-11994
▁맞추려고	-11995
▁맞춤법을	-11996
▁매정하게	-11997
▁맨날맨날	-11998
▁먹고네요	-11999
▁덮	-12000
▁섞	-12001
갖지	-12002
고민	-12003
그래	-12004
노력	-12005
마시	-12006
직한	-12007
집에	-12008
차이	-12009
▁공원	-12010
▁때의	-12011
▁먼데	-12012
▁안이	-12013
▁애니	-12014
▁잊게	-12015
▁잠겨	-12016
▁잠길	-12017
▁취해	-12018
▁한자	-12019
▁화살	-12020
▁힘을	-12021
▁것부터	-12022
▁경우는	-12023
▁과일을	-12024
▁누구니	-12025
▁닮아서	-12026
▁도예요	-12027
▁만큼만	-12028
▁망해도	-12029
▁맞겠지	-12030
▁먹어요	-12031
▁벌수록	-12032
▁부딪혀	-12033
▁부르지	-12034
▁수요일	-12035
▁아닌가	-12036
▁안하기	-12037
▁애기가	-12038
▁양다리	-12039
▁여자에	-12040
▁웃겨봐	-12041
▁이용할	-12042
▁이직을	-12043
▁저처럼	-12044
▁정해서	-12045
▁차이일	-12046
▁칼로리	-12047
▁통해서	-12048
▁편지도	-12049
▁힘차게	-12050
놓으세요	-12051
▁가봅시다	-12052
▁개인적인	-12053
▁고비예요	-12054
▁내일이면	-12055
▁당신이요	-12056
▁등산해요	-12057
▁뜻하기도	-12058
▁맞춰가는	-12059
▁먹어보고	-12060
▁먹었어도	-12061
▁먹으려고	-12062
▁먹을수록	-12063
▁멀었네요	-12064
▁멀었어요	-12065
▁멋있는거	-12066
▁메뉴얼이	-12067
▁명절에는	-12068
▁명확하게	-12069
▁모르겠음	-12070
▁모르겠지	-12071
▁모르는걸	-12072
▁모르니까	-12073
▁모아봐요	-12074
▁모으시는	-12075
▁모임에서	-12076
▁모자라요	-12077
▁목도리는	-12078
▁목소리는	-12079
▁몫이에요	-12080
▁몫입니다	-12081
▁몰라줘도	-12082
▁몰랐네요	-12083
▁몰려가는	-12084
▁몸짓으로	-12085
▁못잊는거	-12086
▁못하냐구	-12087
▁못하시는	-12088
▁무기력증	-12089
▁무기력해	-12090
▁무뚝뚝해	-12091
▁무리일까	-12092
▁무리하지	-12093
▁무시하지	-12094
▁무엇보다	-12095
▁무엇인지	-12096
▁문화센터	-12097
▁물론이죠	-12098
▁물리치료	-12099
▁꿩	-12100
결이	-12101
꿀해	-12102
던데	-12103
뱃돈	-12104
상실	-12105
일지	-12106
~~~	-12107
▁달에	-12108
▁떴어	-12109
▁모공	-12110
▁세포	-12111
▁수고	-12112
▁약해	-12113
▁이른	-12114
▁정치	-12115
▁지상	-12116
▁펴고	-12117
▁허허	-12118
는데로	-12119
버려서	-12120
이였어	-12121
하려나	-12122
▁간다고	-12123
▁깨어진	-12124
▁꼬리가	-12125
▁꼰대가	-12126
▁꽃게탕	-12127
▁꿀꿀해	-12128
▁끼세요	-12129
▁나오는	-12130
▁남았길	-12131
▁돌아섰	-12132
▁만남의	-12133
▁먹어서	-12134
▁바보는	-12135
▁방들이	-12136
▁세뱃돈	-12137
▁수다를	-12138
▁시작함	-12139
▁아이는	-12140
▁월급만	-12141
▁이뻐요	-12142
▁일어난	-12143
▁줄이고	-12144
▁축하할	-12145
▁켜세요	-12146
▁편해진	-12147
▁표현에	-12148
▁프리마	-12149
▁필기구	-12150
▁핑계를	-12151
▁학생이	-12152
▁해봐도	-12153
▁화장은	-12154
▁흐르면	-12155
야할지도	-12156
커플인데	-12157
▁가족에게	-12158
▁결정이죠	-12159
▁교통사고	-12160
▁나으세요	-12161
▁다가왔어	-12162
▁뒷모습만	-12163
▁드릴까요	-12164
▁마무리가	-12165
▁만나보는	-12166
▁무서운건	-12167
▁물어보지	-12168
▁물이라도	-12169
▁뭐였더라	-12170
▁미련없는	-12171
▁미리미리	-12172
▁미스트나	-12173
▁미워하는	-12174
▁미워한다	-12175
▁미워해도	-12176
▁미치겠다	-12177
▁미팅한다	-12178
▁밑거름이	-12179
▁바랄세요	-12180
▁바람난거	-12181
▁바람이나	-12182
▁바람인지	-12183
▁바르세요	-12184
▁바보같은	-12185
▁바보라고	-12186
▁반대예요	-12187
▁반복될까	-12188
▁반복하지	-12189
▁반이에요	-12190
▁반하는게	-12191
▁받아드리	-12192
▁받아줄까	-12193
▁받았는데	-12194
▁받으시는	-12195
▁발바니다	-12196
▁발전시켜	-12197
▁발전적인	-12198
▁발전하면	-12199
▁젊	-12200
감정	-12201
겟어	-12202
금도	-12203
말자	-12204
벨이	-12205
올게	-12206
있죠	-12207
편지	-12208
▁견딜	-12209
▁노답	-12210
▁당함	-12211
▁듣지	-12212
▁뿌얘	-12213
▁사적	-12214
▁서먹	-12215
▁심란	-12216
▁앞둔	-12217
▁읽을	-12218
▁자길	-12219
▁잠도	-12220
답이나	-12221
지마요	-12222
▁가라고	-12223
▁격식은	-12224
▁꼬시지	-12225
▁날들이	-12226
▁노후가	-12227
▁누구를	-12228
▁다녀야	-12229
▁답장해	-12230
▁됐나요	-12231
▁되기가	-12232
▁맛집을	-12233
▁먹고는	-12234
▁못자고	-12235
▁바지가	-12236
▁사수가	-12237
▁살만해	-12238
▁솔로야	-12239
▁술이야	-12240
▁쉬셔야	-12241
▁스쳐도	-12242
▁쓰자고	-12243
▁앞이나	-12244
▁어플에	-12245
▁여행이	-12246
▁외부의	-12247
▁인정은	-12248
▁잊어요	-12249
▁좋다가	-12250
▁직장이	-12251
▁진실을	-12252
▁집밖에	-12253
▁통하는	-12254
▁하나의	-12255
개월동안	-12256
▁관심있나	-12257
▁다가가기	-12258
▁만드니까	-12259
▁매력있는	-12260
▁머리에서	-12261
▁머릿속에	-12262
▁먹으니까	-12263
▁무서워서	-12264
▁묻어두는	-12265
▁반항했어	-12266
▁발표할때	-12267
▁밝혀지기	-12268
▁밥심으로	-12269
▁밥이예요	-12270
▁방법이란	-12271
▁방학이래	-12272
▁배고프지	-12273
▁배려하고	-12274
▁배려해줄	-12275
▁배우는게	-12276
▁배우자와	-12277
▁배움에는	-12278
▁배터리가	-12279
▁버리겠어	-12280
▁버스에서	-12281
▁범죄에요	-12282
▁법이에요	-12283
▁벗어나고	-12284
▁벗었는데	-12285
▁벗으니까	-12286
▁벚꽃구경	-12287
▁베터리만	-12288
▁베트남어	-12289
▁변신하고	-12290
▁변화이길	-12291
▁별로라면	-12292
▁별로인가	-12293
▁별이에요	-12294
▁보고싶을	-12295
▁보내기로	-12296
▁보내줘야	-12297
▁보란듯이	-12298
▁보였으면	-12299
;;	-12300
▁B	-12301
▁귤	-12302
▁논	-12303
▁둬	-12304
▁옛	-12305
럴까	-12306
보지	-12307
안돼	-12308
우울	-12309
의끝	-12310
자아	-12311
진짜	-12312
쳐요	-12313
▁곱씹	-12314
▁놀지	-12315
▁들켰	-12316
▁따듯	-12317
▁맘도	-12318
▁반납	-12319
▁분다	-12320
▁삐져	-12321
▁소풍	-12322
▁속을	-12323
▁슬슬	-12324
▁시누	-12325
▁여부	-12326
▁줄여	-12327
▁참외	-12328
▁파마	-12329
▁하냐	-12330
▁하트	-12331
▁화났	-12332
소에서	-12333
한다는	-12334
▁공감할	-12335
▁구해야	-12336
▁귀엽대	-12337
▁귀찮게	-12338
▁끝나길	-12339
▁눈살이	-12340
▁단점을	-12341
▁돌아온	-12342
▁버렸다	-12343
▁비교돼	-12344
▁야근해	-12345
▁어머나	-12346
▁우리의	-12347
▁작동이	-12348
▁중간중	-12349
▁처리할	-12350
▁취미와	-12351
▁치매가	-12352
▁특징은	-12353
▁티내면	-12354
▁편해도	-12355
▁피나는	-12356
▁힘드시	-12357
하다면요	-12358
▁마시라고	-12359
▁막히더라	-12360
▁많겠네요	-12361
▁모자라지	-12362
▁무관심이	-12363
▁무리하면	-12364
▁뭐하면서	-12365
▁바쁘네요	-12366
▁보이는데	-12367
▁보이세요	-12368
▁보일러를	-12369
▁보자는데	-12370
▁보장해요	-12371
▁복붙으로	-12372
▁복스럽게	-12373
▁복이와요	-12374
▁복전하면	-12375
▁봄인가봐	-12376
▁봐달라고	-12377
▁봐야겠다	-12378
▁봐야하나	-12379
▁봐주니까	-12380
▁봤나봐요	-12381
▁부담감을	-12382
▁부담되지	-12383
▁부담스러	-12384
▁부메랑이	-12385
▁부모님과	-12386
▁부여하지	-12387
▁부자되실	-12388
▁부족한지	-12389
▁부질없는	-12390
▁부추기면	-12391
▁분에게도	-12392
▁분위기도	-12393
▁분이네요	-12394
▁불과하죠	-12395
▁불금이네	-12396
▁불러줬어	-12397
▁불편함을	-12398
▁붙이세요	-12399
▁속는	-12400
▁외박	-12401
▁친해	-12402
▁과식은	-12403
▁혼내는	-12404
됐습니다	-12405
▁되었으면	-12406
▁로맨스는	-12407
▁블록들이	-12408
▁블루투스	-12409
▁비슷한거	-12410
▁비싸지만	-12411
▁비오는데	-12412
▁비왔으면	-12413
▁빠졌군요	-12414
▁빠질까봐	-12415
▁뽑지말고	-12416
▁뿐이예요	-12417
▁사겼는데	-12418
▁사귀기로	-12419
▁사귀어서	-12420
▁사나봐요	-12421
▁사는데요	-12422
▁사드리고	-12423
▁사라질까	-12424
▁사람들과	-12425
▁사람들도	-12426
▁사람들을	-12427
▁사람보다	-12428
▁사람이네	-12429
▁사람인가	-12430
▁사람인지	-12431
▁사랑없이	-12432
▁사랑에서	-12433
▁사랑이란	-12434
▁사랑인가	-12435
▁사랑해도	-12436
▁사랑해줘	-12437
▁사랑했기	-12438
▁사야겠지	-12439
▁사오세요	-12440
▁사이라면	-12441
▁사이즈를	-12442
▁사주세요	-12443
▁사춘기로	-12444
▁살기에는	-12445
▁살아야돼	-12446
▁삼겹살에	-12447
▁상담이나	-12448
▁상대분이	-12449
▁상사예요	-12450
▁상사한테	-12451
▁상종하지	-12452
▁상처주는	-12453
▁상처주지	-12454
▁상처줬어	-12455
▁상태에서	-12456
▁상황에서	-12457
▁상황인지	-12458
▁색다른걸	-12459
▁생각나서	-12460
▁생각난다	-12461
▁생각났을	-12462
▁생각인지	-12463
▁생각하기	-12464
▁생각하며	-12465
▁생각했을	-12466
▁생겼나봐	-12467
▁생기시길	-12468
▁생긴다고	-12469
▁생일이야	-12470
▁생일인데	-12471
▁샤워가운	-12472
▁서운한거	-12473
▁서운함을	-12474
▁서툴러도	-12475
▁서핑하러	-12476
▁선물이라	-12477
▁선물할까	-12478
▁선생님도	-12479
▁선천적인	-12480
▁선택이든	-12481
▁선택이죠	-12482
▁설날인데	-12483
▁성공에서	-12484
▁성공적일	-12485
▁성공하면	-12486
▁성공했길	-12487
▁성장하려	-12488
▁세수하고	-12489
▁섹스리스	-12490
▁소독하고	-12491
▁소리나서	-12492
▁소맥이요	-12493
▁소분해서	-12494
▁소액결제	-12495
▁소중하게	-12496
▁소중해요	-12497
▁속사정을	-12498
▁속이는건	-12499
▁손재주가	-12500
▁손톱이나	-12501
▁손해예요	-12502
▁솔솔와서	-12503
▁솔직하지	-12504
▁쇼핑몰이	-12505
▁수강신청	-12506
▁수분크림	-12507
▁수상한데	-12508
▁수업시간	-12509
▁수준에서	-12510
▁순간들이	-12511
▁순수했던	-12512
▁술마시고	-12513
▁술마시는	-12514
▁쉽겠어요	-12515
▁슈퍼라도	-12516
▁스노클링	-12517
▁스몰웨딩	-12518
▁스스로도	-12519
▁스스로의	-12520
▁스케일링	-12521
▁스타벅스	-12522
▁스타일러	-12523
▁스타일의	-12524
▁슬프게도	-12525
▁습관으로	-12526
▁시간들을	-12527
▁시간들이	-12528
▁시간이죠	-12529
▁시간인가	-12530
▁시기에요	-12531
▁시베리아	-12532
▁시작하고	-12533
▁시켜야지	-12534
▁시켜줬어	-12535
▁시트지로	-12536
▁식사시간	-12537
▁식습관을	-12538
▁식욕폭발	-12539
▁식이요법	-12540
▁신용카드	-12541
▁신행준비	-12542
▁신혼인데	-12543
▁실례에요	-12544
▁실례예요	-12545
▁실수한거	-12546
▁실패해도	-12547
▁싫어져요	-12548
▁싫어졌어	-12549
▁싫어할까	-12550
▁싫었는데	-12551
▁싫은가봐	-12552
▁심리상담	-12553
▁심심하다	-12554
▁심쿵하게	-12555
▁심플하게	-12556
▁심하네요	-12557
▁싶어서요	-12558
▁싶어지죠	-12559
▁싶었는데	-12560
▁싶은대로	-12561
▁싸가지고	-12562
▁싸우기만	-12563
▁싸웠는데	-12564
▁썸남인데	-12565
▁썸타는거	-12566
▁썸타는데	-12567
▁쓰니까요	-12568
▁씁쓸하네	-12569
▁씨씨인데	-12570
▁씻어보고	-12571
▁아까워요	-12572
▁아깝네요	-12573
▁아니예요	-12574
▁아닌가봐	-12575
▁아닐지도	-12576
▁아름답게	-12577
▁아무렇지	-12578
▁아무일도	-12579
▁아빠에게	-12580
▁아시네요	-12581
▁아싸해도	-12582
▁아웃풋이	-12583
▁아이돌이	-12584
▁아재인가	-12585
▁아직인가	-12586
▁아파트가	-12587
▁아파하지	-12588
▁아프니까	-12589
▁아픈가요	-12590
▁안가지고	-12591
▁안경테가	-12592
▁안나가고	-12593
▁안녕이죠	-12594
▁안돌아오	-12595
▁안됐네요	-12596
▁안되는게	-12597
▁안된다고	-12598
▁안됩니다	-12599
▁안들어와	-12600
▁안전하지	-12601
▁안정적인	-12602
▁안풀리는	-12603
▁안하고는	-12604
▁안하는게	-12605
▁안했으면	-12606
▁앉아있지	-12607
▁않으셨나	-12608
▁알거예요	-12609
▁알고보니	-12610
▁알바비가	-12611
▁알바예요	-12612
▁알바하면	-12613
▁알아가고	-12614
▁알아내서	-12615
▁알아봐요	-12616
▁알아주는	-12617
▁알았어요	-12618
▁알았으면	-12619
▁앞머리로	-12620
▁앞모습을	-12621
▁앞으로는	-12622
▁애국가요	-12623
▁애매모호	-12624
▁애석해요	-12625
▁야경구경	-12626
▁야경이죠	-12627
▁약해지면	-12628
▁양배추즙	-12629
▁양치하고	-12630
▁어디에요	-12631
▁어딘가에	-12632
▁어떡하면	-12633
▁어떡해야	-12634
▁어떤건지	-12635
▁어떻하죠	-12636
▁어렵네요	-12637
▁어렸을때	-12638
▁어리석은	-12639
▁어색해서	-12640
▁어울리면	-12641
▁어장관리	-12642
▁어장이면	-12643
▁어젯밤에	-12644
▁어찌하면	-12645
▁언제했어	-12646
▁얻는다는	-12647
▁얼떨떨할	-12648
▁없는걸요	-12649
▁없어졌네	-12650
▁없었는데	-12651
▁없을거야	-12652
▁엇갈리는	-12653
▁여러가지	-12654
▁여름에는	-12655
▁여우네요	-12656
▁여자애랑	-12657
▁여자애를	-12658
▁여자애의	-12659
▁여자인지	-12660
▁여행가재	-12661
▁엮여있는	-12662
▁연락하기	-12663
▁연락했어	-12664
▁연습하면	-12665
▁연애하다	-12666
▁연예인을	-12667
▁열받아서	-12668
▁열어주지	-12669
▁였나봐요	-12670
▁영어학원	-12671
▁영칼로리	-12672
▁영화보재	-12673
▁예능이요	-12674
▁예랑이가	-12675
▁예민해서	-12676
▁예민해져	-12677
▁예쁘겠죠	-12678
▁예쁘니까	-12679
▁예쁜걸로	-12680
▁예전처럼	-12681
▁오겠네요	-12682
▁오늘보다	-12683
▁오늘부로	-12684
▁오늘처럼	-12685
▁오래가요	-12686
▁오려나요	-12687
▁오빠한테	-12688
▁오해하게	-12689
▁옳은걸까	-12690
▁옷차림도	-12691
▁완전체가	-12692
▁완전하게	-12693
▁왔다갔다	-12694
▁외로움이	-12695
▁외로워서	-12696
▁요긴하긴	-12697
▁요즘에는	-12698
▁욕망이지	-12699
▁우리끼리	-12700
▁우리집에	-12701
▁우울하고	-12702
▁우울하네	-12703
▁우울할땐	-12704
▁운동하게	-12705
▁운동하고	-12706
▁운동하다	-12707
▁운전처럼	-12708
▁울적해서	-12709
▁웃어봐요	-12710
▁웃음나는	-12711
▁월급날을	-12712
▁월급날이	-12713
▁월요일도	-12714
▁웨딩촬영	-12715
▁위로해줄	-12716
▁위해서는	-12717
▁위험하죠	-12718
▁위험할까	-12719
▁위험해요	-12720
▁유행이래	-12721
▁유행하고	-12722
▁의사표시	-12723
▁의존하는	-12724
▁의지하지	-12725
▁이것저것	-12726
▁이겨내기	-12727
▁이대로가	-12728
▁이벤트를	-12729
▁이별에도	-12730
▁이별하신	-12731
▁이별했네	-12732
▁이별했어	-12733
▁이불에서	-12734
▁이상으로	-12735
▁이상이면	-12736
▁이상하게	-12737
▁이상하지	-12738
▁이상형일	-12739
▁이야기가	-12740
▁이어지길	-12741
▁이해하지	-12742
▁이해해줘	-12743
▁익숙함이	-12744
▁인도해줄	-12745
▁인사부터	-12746
▁인스타를	-12747
▁인연인가	-12748
▁인정해줄	-12749
▁일기예보	-12750
▁일방적인	-12751
▁일상에서	-12752
▁일시적인	-12753
▁일어날까	-12754
▁일요일이	-12755
▁일이냐에	-12756
▁일이었어	-12757
▁일이었을	-12758
▁일이지요	-12759
▁일인자가	-12760
▁입냄새가	-12761
▁입어보고	-12762
▁잇몸에서	-12763
▁있겠지요	-12764
▁있다는데	-12765
▁있다면요	-12766
▁있었는지	-12767
▁있을거라	-12768
▁있을수도	-12769
▁잊고싶다	-12770
▁잊어가요	-12771
▁잊지말고	-12772
▁잊혀지네	-12773
▁잊혀지면	-12774
▁자격증일	-12775
▁자괴감이	-12776
▁자기보다	-12777
▁자기한테	-12778
▁자랑하는	-12779
▁자리에서	-12780
▁자세예요	-12781
▁자신다운	-12782
▁자신하고	-12783
▁자유지만	-12784
▁자율주행	-12785
▁자장가를	-12786
▁자주하면	-12787
▁작은것에	-12788
▁잔인하네	-12789
▁잔잔하네	-12790
▁잘됐으면	-12791
▁잘못이지	-12792
▁잘생겼어	-12793
▁잘생겼지	-12794
▁잘하는지	-12795
▁잘하니까	-12796
▁잘하세요	-12797
▁잘해줘도	-12798
▁잠겼는데	-12799
▁잠수타는	-12800
▁잠수탔어	-12801
▁잠자리에	-12802
▁잠재력은	-12803
▁장기자랑	-12804
▁장단점을	-12805
▁장만하는	-12806
▁재미없지	-12807
▁재밌거나	-12808
▁재밌겠지	-12809
▁재설계가	-12810
▁재택근무	-12811
▁재활용도	-12812
▁재회하고	-12813
▁재회하면	-12814
▁저렴하게	-12815
▁저음이죠	-12816
▁저입니다	-12817
▁저축해서	-12818
▁저편으로	-12819
▁저평가되	-12820
▁적당해요	-12821
▁적응하고	-12822
▁적이에요	-12823
▁전기장판	-12824
▁전역해서	-12825
▁전하는게	-12826
▁전하세요	-12827
▁전학가게	-12828
▁전형적인	-12829
▁전화왔어	-12830
▁전화하고	-12831
▁전화하기	-12832
▁절약하면	-12833
▁접질렀어	-12834
▁정글에서	-12835
▁정리하려	-12836
▁정리해야	-12837
▁정상이죠	-12838
▁정상일까	-12839
▁정신차리	-12840
▁정열적인	-12841
▁제습기를	-12842
▁조깅하고	-12843
▁조심스레	-12844
▁조용하니	-12845
▁종료네요	-12846
▁좋겠다고	-12847
▁좋더라도	-12848
▁좋아해서	-12849
▁좋았겠죠	-12850
▁좋으면서	-12851
▁좋은점을	-12852
▁좋은차로	-12853
▁좋은텐데	-12854
▁좋을거죠	-12855
▁좋지만은	-12856
▁주물주물	-12857
▁주워담을	-12858
▁주인공은	-12859
▁주차장이	-12860
▁주택청약	-12861
▁죽고싶어	-12862
▁준비하니	-12863
▁준비하면	-12864
▁중독에서	-12865
▁중소기업	-12866
▁중요한지	-12867
▁즐거워요	-12868
▁즐겨보는	-12869
▁즐겨야지	-12870
▁증명하는	-12871
▁지각하네	-12872
▁지금까지	-12873
▁지금이죠	-12874
▁지끈거려	-12875
▁지내는데	-12876
▁지냈으면	-12877
▁지름신이	-12878
▁지불하고	-12879
▁지속해도	-12880
▁지압이나	-12881
▁지옥같은	-12882
▁지진나면	-12883
▁지쳐가네	-12884
▁지칩니다	-12885
▁지켜보는	-12886
▁지켜지지	-12887
▁지키면서	-12888
▁직접적인	-12889
▁진급에서	-12890
▁진리예요	-12891
▁진실되게	-12892
▁진심인지	-12893
▁진짜일까	-12894
▁질거예요	-12895
▁질척거리	-12896
▁질투하는	-12897
▁질투하지	-12898
▁짐작하는	-12899
▁집안일이	-12900
▁집앞에서	-12901
▁집착하지	-12902
▁짜장면은	-12903
▁짜증난다	-12904
▁짝사랑인	-12905
▁짝사랑일	-12906
▁짝사랑한	-12907
▁짧은만남	-12908
▁째깍째깍	-12909
▁찌뿌둥해	-12910
▁찍다보면	-12911
▁차곡차곡	-12912
▁차단하는	-12913
▁착각일까	-12914
▁착각하고	-12915
▁착찹하네	-12916
▁참석하는	-12917
▁참았어요	-12918
▁찾는다고	-12919
▁찾아가고	-12920
▁찾아보는	-12921
▁찾아볼까	-12922
▁찾아야할	-12923
▁찾아오길	-12924
▁챙겨주고	-12925
▁챙겨줄까	-12926
▁챙긴다는	-12927
▁처음이라	-12928
▁천국이니	-12929
▁천재예요	-12930
▁첫데이트	-12931
▁첫사랑도	-12932
▁첫사랑은	-12933
▁첫키스는	-12934
▁청결하게	-12935
▁청소기를	-12936
▁청첩장을	-12937
▁체인으로	-12938
▁초대하고	-12939
▁초심으로	-12940
▁최고라고	-12941
▁추적추적	-12942
▁출근시간	-12943
▁출근하기	-12944
▁출퇴근을	-12945
▁충전기도	-12946
▁충전기를	-12947
▁충전하고	-12948
▁충전하는	-12949
▁취직할까	-12950
▁취향인데	-12951
▁치맥이죠	-12952
▁치열하죠	-12953
▁친구사이	-12954
▁친구해도	-12955
▁친절한데	-12956
▁침대에서	-12957
▁카카오톡	-12958
▁카톡에서	-12959
▁카톡하고	-12960
▁카톡하는	-12961
▁카톡하지	-12962
▁카페가면	-12963
▁카페라도	-12964
▁카페인이	-12965
▁커뮤니티	-12966
▁커플부터	-12967
▁컨설팅을	-12968
▁컴백한다	-12969
▁콜록콜록	-12970
▁크게한번	-12971
▁클스마스	-12972
▁키우세요	-12973
▁타이밍을	-12974
▁탈이네요	-12975
▁탈출구를	-12976
▁탈출하고	-12977
▁태그해도	-12978
▁태닝할까	-12979
▁태도네요	-12980
▁태어나고	-12981
▁태어나도	-12982
▁태연하게	-12983
▁택시탈까	-12984
▁통화하면	-12985
▁퇴근시간	-12986
▁트집잡는	-12987
▁특별하죠	-12988
▁티냈는데	-12989
▁팀워크가	-12990
▁파급력이	-12991
▁파혼했어	-12992
▁판단하지	-12993
▁패션으로	-12994
▁편안하고	-12995
▁편이에요	-12996
▁편하대요	-12997
▁편할지도	-12998
▁평소처럼	-12999
▁평안했던	-13000
▁평온하길	-13001
▁포근하죠	-13002
▁포기해야	-13003
▁폰케이스	-13004
▁표출하는	-13005
▁프로젝트	-13006
▁플라토닉	-13007
▁피곤한건	-13008
▁피곤한테	-13009
▁피해가는	-13010
▁피해주지	-13011
▁필요없는	-13012
▁필요하면	-13013
▁필요할까	-13014
▁필요했던	-13015
▁핑계보다	-13016
▁하겠네요	-13017
▁하고싶다	-13018
▁하고싶어	-13019
▁하고싶은	-13020
▁하나밖에	-13021
▁하는거야	-13022
▁하는건가	-13023
▁하늘만큼	-13024
▁하던데요	-13025
▁하루이길	-13026
▁하셔야죠	-13027
▁하셨어요	-13028
▁하시다니	-13029
▁학기에는	-13030
▁한강에서	-13031
▁한눈팔며	-13032
▁한다는데	-13033
▁한달됐어	-13034
▁한달반째	-13035
▁한달인데	-13036
▁한순간에	-13037
▁한순간이	-13038
▁한심하네	-13039
▁함께하면	-13040
▁함께할때	-13041
▁합격하는	-13042
▁해결방안	-13043
▁해결해줄	-13044
▁해도해도	-13045
▁해드세요	-13046
▁해로우니	-13047
▁해로워요	-13048
▁해버렸네	-13049
▁해보는건	-13050
▁해보는게	-13051
▁해봤어요	-13052
▁해야겠어	-13053
▁해야하는	-13054
▁핸드폰은	-13055
▁핸드폰을	-13056
▁했을거라	-13057
▁행복하실	-13058
▁행운까지	-13059
▁허락하는	-13060
▁허리띠를	-13061
▁허무하다	-13062
▁헤어나올	-13063
▁헤어져도	-13064
▁헤어지신	-13065
▁헤어진후	-13066
▁헤이진지	-13067
▁현금이면	-13068
▁현실에서	-13069
▁현실이랑	-13070
▁호감가는	-13071
▁호감인지	-13072
▁호르몬이	-13073
▁호의인지	-13074
▁혼나면서	-13075
▁혼란스럽	-13076
▁혼자인게	-13077
▁혼자하는	-13078
▁화가나네	-13079
▁화장실을	-13080
▁화장으로	-13081
▁확신하는	-13082
▁확실하지	-13083
▁확실한지	-13084
▁확실해졌	-13085
▁환기하는	-13086
▁환승하는	-13087
▁활력소가	-13088
▁회사네요	-13089
▁후련하길	-13090
▁후회하고	-13091
▁휴대폰이	-13092
▁흔들리고	-13093
▁흔들리네	-13094
▁희망고문	-13095
▁힘겨울때	-13096
▁힘내라는	-13097
▁힘드네여	-13098
▁힘든가요	-13099
▁힘든거네	-13100
▁힘들기도	-13101
▁힘들어할	-13102
▁힘들텐데	-13103
나가는거죠	-13104
스럽습니다	-13105
이었을까요	-13106
주려나봐요	-13107
초대사량을	-13108
커페이스를	-13109
하기로했어	-13110
하나봅니다	-13111
해야하는걸	-13112
▁가을이네요	-13113
▁가져가세요	-13114
▁각질제거를	-13115
▁간접적으로	-13116
▁갈렸나봐요	-13117
▁감성적이기	-13118
▁감싸주세요	-13119
▁감정기복이	-13120
▁감정소모가	-13121
▁감정이에요	-13122
▁감정조절이	-13123
▁갑작스러웠	-13124
▁갔다와야지	-13125
▁강박관념에	-13126
▁강추위래요	-13127
▁개인적으로	-13128
▁거짓말이길	-13129
▁걱정이네요	-13130
▁걱정이에요	-13131
▁게임하세요	-13132
▁게임할때는	-13133
▁견뎌보세요	-13134
▁결심이네요	-13135
▁결정난데요	-13136
▁결혼식이야	-13137
▁결혼하겠대	-13138
▁결혼하세요	-13139
▁결혼해서도	-13140
▁경쟁하겠죠	-13141
▁경제적으로	-13142
▁경험이라고	-13143
▁계절이에요	-13144
▁계획적이고	-13145
▁고기앞이죠	-13146
▁고마운만큼	-13147
▁고민이에요	-13148
▁고시원에서	-13149
▁곤두세우지	-13150
▁곳이라면요	-13151
▁곳인가봐요	-13152
▁공개적으로	-13153
▁공급하려는	-13154
▁공동육아가	-13155
▁공부방법을	-13156
▁공부하면서	-13157
▁공부하자고	-13158
▁공시생인데	-13159
▁공통이에요	-13160
▁공휴일에는	-13161
▁관계입니다	-13162
▁관리해봐요	-13163
▁괜찮다가도	-13164
▁괜찮아지길	-13165
▁괜찮았는데	-13166
▁괜찮은가요	-13167
▁괜찮은거로	-13168
▁구박하지는	-13169
▁구여친이랑	-13170
▁구하셨나요	-13171
▁궁금하다고	-13172
▁귀차니즘을	-13173
▁귀찮아할까	-13174
▁그녀에게도	-13175
▁그럴거예요	-13176
▁그리워하는	-13177
▁그립습니다	-13178
▁그만하는게	-13179
▁극복하거나	-13180
▁근무시간이	-13181
▁금물이에요	-13182
▁금연하세요	-13183
▁긍정적으로	-13184
▁긍정적이고	-13185
▁기다려봐요	-13186
▁기다렸다가	-13187
▁기다리라고	-13188
▁기다리면서	-13189
▁기다리지도	-13190
▁기대로부터	-13191
▁기본이에요	-13192
▁기본인데요	-13193
▁기분전환에	-13194
▁기분전환이	-13195
▁기어오른다	-13196
▁기억해주고	-13197
▁기울여봐요	-13198
▁기울여주고	-13199
▁기특하네요	-13200
▁김치볶음밥	-13201
▁깔끔하겠죠	-13202
▁꿰메보세요	-13203
▁끓여드세요	-13204
▁끝냈습니다	-13205
▁끝인가봐요	-13206
▁끝인거겠죠	-13207
▁끝인거예요	-13208
▁나오겠네요	-13209
▁나이테예요	-13210
▁남겨보세요	-13211
▁남동생한테	-13212
▁남자친구는	-13213
▁내년이라고	-13214
▁내려두세요	-13215
▁내려주세요	-13216
▁내렸나봐요	-13217
▁너무하는게	-13218
▁넘겨보세요	-13219
▁넣어보세요	-13220
▁노려보세요	-13221
▁노력해야죠	-13222
▁녹여보세요	-13223
▁놀아드리고	-13224
▁놀이동산은	-13225
▁높나봅니다	-13226
▁높아집니다	-13227
▁높여보세요	-13228
▁느낀다면요	-13229
▁느낌이네요	-13230
▁느낌이에요	-13231
▁느려지는듯	-13232
▁능력이겠죠	-13233
▁능력이라면	-13234
▁다가가는게	-13235
▁다가가야죠	-13236
▁다가갔네요	-13237
▁다가왔네요	-13238
▁다르니까요	-13239
▁다음달에는	-13240
▁다이렉트로	-13241
▁다이어트를	-13242
▁다짐이에요	-13243
▁다행입니다	-13244
▁달라졌겠죠	-13245
▁달라지겠죠	-13246
▁달랐나봐요	-13247
▁달렸나봐요	-13248
▁달콤하네요	-13249
▁답답하다면	-13250
▁당당해져도	-13251
▁당했나봐요	-13252
▁당했습니다	-13253
▁대수인가요	-13254
▁대체불가한	-13255
▁대화하면서	-13256
▁데려달라고	-13257
▁데이트하기	-13258
▁도망가라는	-13259
▁도서관에서	-13260
▁도와드리면	-13261
▁도와주려는	-13262
▁동감이에요	-13263
▁동의한다면	-13264
▁되시겠어요	-13265
▁되어갑니다	-13266
▁되었겠네요	-13267
▁될수있겠죠	-13268
▁두근거려요	-13269
▁뒤돌아봐도	-13270
▁뒷담화하는	-13271
▁뒹굴거리고	-13272
▁들어가기가	-13273
▁들어가세요	-13274
▁들었나봐요	-13275
▁따라가겠지	-13276
▁따라가려면	-13277
▁따라와주지	-13278
▁딸기잼에게	-13279
▁떠났습니다	-13280
▁뚫어보아요	-13281
▁띄어보세요	-13282
▁레시피대로	-13283
▁로망이네요	-13284
▁로맨틱해요	-13285
▁리폼할거야	-13286
▁마련이지요	-13287
▁마음에서도	-13288
▁마음이란게	-13289
▁막아보세요	-13290
▁만나고왔어	-13291
▁만나보시면	-13292
▁만났는데도	-13293
▁만드나봐요	-13294
▁만들거예요	-13295
▁만들어볼까	-13296
▁만들어야지	-13297
▁만들어주는	-13298
▁많으시군요	-13299
▁많으시네요	-13300
▁많을거예요	-13301
▁말아보셔요	-13302
▁말하는대로	-13303
▁말해달라고	-13304
▁말해보는게	-13305
▁맛있겠네요	-13306
▁맞는거겠죠	-13307
▁맞춰가기도	-13308
▁맞춰주세요	-13309
▁매력이겠죠	-13310
▁머리스타일	-13311
▁머리카락이	-13312
▁머릿속에서	-13313
▁먹었습니다	-13314
▁메모리카드	-13315
▁모르겠는데	-13316
▁모습일지도	-13317
▁모처럼만에	-13318
▁못지우겠네	-13319
▁무덤덤한데	-13320
▁무리하지는	-13321
▁무섭습니다	-13322
▁무소음으로	-13323
▁무엇인가를	-13324
▁무한리필만	-13325
▁문제겠네요	-13326
▁물어보면서	-13327
▁뭐하냐는데	-13328
▁미끄러우니	-13329
▁미루지말고	-13330
▁미안해하는	-13331
▁밑바닥까지	-13332
▁바라봤을때	-13333
▁바쁘더라도	-13334
▁받아들여요	-13335
▁받아들이지	-13336
▁받았습니다	-13337
▁받지마세요	-13338
▁밤인가봐요	-13339
▁방학이예요	-13340
▁배워보세요	-13341
▁버려달라고	-13342
▁버려보세요	-13343
▁버려야겠지	-13344
▁버려야지요	-13345
▁버텨냈어요	-13346
▁변덕스러운	-13347
▁변명보다는	-13348
▁변해가는거	-13349
▁보고싶다고	-13350
▁보고싶어서	-13351
▁보고싶어요	-13352
▁보내겠네요	-13353
▁보답하세요	-13354
▁보셨나봐요	-13355
▁보약이에요	-13356
▁보여보세요	-13357
▁복잡하네요	-13358
▁본거에서는	-13359
▁본받으면서	-13360
▁부담스럽게	-13361
▁부려보세요	-13362
▁부모님만의	-13363
▁부모님이나	-13364
▁부분이에요	-13365
▁부족하지만	-13366
▁부족합니다	-13367
▁분들이에요	-13368
▁분이시군요	-13369
▁불공평해요	-13370
▁불러주세요	-13371
▁불안해하지	-13372
▁붙잡으세요	-13373
▁블록체인이	-13374
▁비워보세요	-13375
▁비정상이야	-13376
▁비틀어져요	-13377
▁비행기표가	-13378
▁비혼주의래	-13379
▁빌려줬는데	-13380
▁빠르시군요	-13381
▁빠졌나봐요	-13382
▁빼앗겼다고	-13383
▁뿌려보세요	-13384
▁뿐이니까요	-13385
▁사과하는게	-13386
▁사과해야죠	-13387
▁사나봅니다	-13388
▁사다리타기	-13389
▁사람들이나	-13390
▁사람들이랑	-13391
▁사람들이요	-13392
▁사람이군요	-13393
▁사람이니까	-13394
▁사람이라고	-13395
▁사람이었어	-13396
▁사람이예요	-13397
▁사람입니다	-13398
▁사람한테만	-13399
▁사랑만으로	-13400
▁사랑이라면	-13401
▁사랑하는게	-13402
▁사랑하면서	-13403
▁사랑해라고	-13404
▁사랑했는데	-13405
▁사랑했다는	-13406
▁사로잡히지	-13407
▁사먹으세요	-13408
▁사실이네요	-13409
▁사야되는데	-13410
▁사회생활로	-13411
▁사회생활을	-13412
▁사회생활의	-13413
▁사회에서도	-13414
▁살아보세요	-13415
▁상대적으로	-13416
▁상대적이죠	-13417
▁생각난다면	-13418
▁생각입니다	-13419
▁생각하기는	-13420
▁생각한다고	-13421
▁생각한다면	-13422
▁생각해주는	-13423
▁생각했나봐	-13424
▁생각했어요	-13425
▁생겼을때는	-13426
▁생일입니다	-13427
▁생활용품이	-13428
▁생활패턴을	-13429
▁샤워하는데	-13430
▁서비스센터	-13431
▁선물이에요	-13432
▁선물해볼까	-13433
▁선생님이나	-13434
▁선생님이요	-13435
▁선생님한테	-13436
▁선택했어요	-13437
▁설레겠어요	-13438
▁설렜나봐요	-13439
▁섬유탈취제	-13440
▁성덕이네요	-13441
▁세상이에요	-13442
▁셀프였으면	-13443
▁셀프웨딩이	-13444
▁소개팅한다	-13445
▁소름돋네요	-13446
▁소액결제를	-13447
▁소화시켜야	-13448
▁속시원해요	-13449
▁속아주세요	-13450
▁손해배상을	-13451
▁솔직했으면	-13452
▁순수하다는	-13453
▁쉬어주세요	-13454
▁쉬워보이나	-13455
▁슈퍼우먼이	-13456
▁습관이라고	-13457
▁시간이지요	-13458
▁시간표대로	-13459
▁시급하네요	-13460
▁시도해봐도	-13461
▁시어머니도	-13462
▁시원하네요	-13463
▁시작됩니다	-13464
▁시작해보면	-13465
▁시켜보세요	-13466
▁시키는데로	-13467
▁식단이네요	-13468
▁식단조절도	-13469
▁식혀주세요	-13470
▁신기하네요	-13471
▁신혼여행은	-13472
▁실수한건가	-13473
▁실수했나요	-13474
▁실천하기는	-13475
▁싫은가봐요	-13476
▁심심하다고	-13477
▁싱숭생숭한	-13478
▁싶은가봐요	-13479
▁쓰리겠어요	-13480
▁쓰셨나봐요	-13481
▁쓸데없어요	-13482
▁씌였나봐요	-13483
▁아니었나요	-13484
▁아니었네요	-13485
▁아무렇게나	-13486
▁아쉽겠어요	-13487
▁아울렛이죠	-13488
▁아이다워야	-13489
▁아이라이너	-13490
▁아줌마들이	-13491
▁아침이에요	-13492
▁아파하면서	-13493
▁아프겠네요	-13494
▁안갈거예요	-13495
▁안나겠어요	-13496
▁안나나봐요	-13497
▁안되겠지만	-13498
▁안되는건가	-13499
▁안읽씹하면	-13500
▁안정적이고	-13501
▁안타까워요	-13502
▁안타깝지만	-13503
▁않았을텐데	-13504
▁않은가봐요	-13505
▁알게되면서	-13506
▁알겠습니다	-13507
▁알아가야죠	-13508
▁알아봐주는	-13509
▁애석하네요	-13510
▁어디서부터	-13511
▁어디있을까	-13512
▁어려서부터	-13513
▁어려우니까	-13514
▁어렵겠지만	-13515
▁어렸을때는	-13516
▁어린가봐요	-13517
▁어색해졌어	-13518
▁어쩔수없죠	-13519
▁엄마아빠랑	-13520
▁업데이트가	-13521
▁없는걸지도	-13522
▁없어가지구	-13523
▁여기까지가	-13524
▁여름이네요	-13525
▁여행지에서	-13526
▁연락이었길	-13527
▁연락하세요	-13528
▁연락했을까	-13529
▁연습하거나	-13530
▁연애세포가	-13531
▁연애였는데	-13532
▁연연해하지	-13533
▁열까지밖에	-13534
▁열어보세요	-13535
▁영원했으면	-13536
▁예뻐보이는	-13537
▁예뻐지나봐	-13538
▁예약하세요	-13539
▁오래됐는데	-13540
▁오려나봐요	-13541
▁오해할만한	-13542
▁올려보세요	-13543
▁올려봅니다	-13544
▁외로우니까	-13545
▁외출하세요	-13546
▁왼손잡이가	-13547
▁요구하세요	-13548
▁용기내보는	-13549
▁용기내세요	-13550
▁용서하면서	-13551
▁우선순위로	-13552
▁우선순위를	-13553
▁우선순위면	-13554
▁우정이란게	-13555
▁운동하면서	-13556
▁운명인가요	-13557
▁운명일지도	-13558
▁운전하는거	-13559
▁울어보세요	-13560
▁움직이기가	-13561
▁움츠러들지	-13562
▁원하는대로	-13563
▁웨딩드레스	-13564
▁위기이면서	-13565
▁위로봇이요	-13566
▁위험하네요	-13567
▁유머코드가	-13568
▁유의하세요	-13569
▁음료수라도	-13570
▁의미일까요	-13571
▁이겨냈어요	-13572
▁이겨야해요	-13573
▁이끌어주는	-13574
▁이러는걸까	-13575
▁이뤄보아요	-13576
▁이모티콘을	-13577
▁이별이야기	-13578
▁이별하거나	-13579
▁이사람이다	-13580
▁이상형이야	-13581
▁이성으로서	-13582
▁이성이니까	-13583
▁이성친구가	-13584
▁이야기했던	-13585
▁이해하려고	-13586
▁익숙해져서	-13587
▁익숙해지는	-13588
▁인간이라는	-13589
▁인공눈물을	-13590
▁인사해줬어	-13591
▁일반인보다	-13592
▁일부니까요	-13593
▁일인가봐요	-13594
▁일주일만에	-13595
▁있어요라고	-13596
▁잊지마세요	-13597
▁잊지못하고	-13598
▁자괴감에서	-13599
▁자기개발을	-13600
▁자리니까요	-13601
▁자신감있게	-13602
▁자야하는데	-13603
▁자유로워질	-13604
▁자장면이요	-13605
▁작동하는지	-13606
▁잘못이네요	-13607
▁잘생겼어요	-13608
▁잘지내고있	-13609
▁잘지내는지	-13610
▁잘해줬더니	-13611
▁장거리연애	-13612
▁재미있는거	-13613
▁쟁취하세요	-13614
▁저기압에는	-13615
▁저주할거야	-13616
▁적극적이면	-13617
▁적으니까요	-13618
▁전남자친구	-13619
▁전남친이랑	-13620
▁전남친한테	-13621
▁전여자친구	-13622
▁전여친에게	-13623
▁전해졌으면	-13624
▁절약해봐요	-13625
▁접어두는게	-13626
▁정리되었길	-13627
▁정리될지도	-13628
▁정리해야지	-13629
▁정리해야할	-13630
▁정신적으로	-13631
▁제철과일이	-13632
▁조급해하지	-13633
▁졸린가봐요	-13634
▁좋아하나요	-13635
▁좋아하는걸	-13636
▁좋아했지만	-13637
▁좋았겠어요	-13638
▁좋은것만은	-13639
▁좋을거예요	-13640
▁주당이에요	-13641
▁주실거예요	-13642
▁죽을것같아	-13643
▁준비하면서	-13644
▁준비한만큼	-13645
▁중요한데요	-13646
▁중요합니다	-13647
▁증명자료를	-13648
▁증상이에요	-13649
▁지금처럼만	-13650
▁지나가네요	-13651
▁지나갑니다	-13652
▁지나갔네요	-13653
▁지나갔으면	-13654
▁지내봅시다	-13655
▁지냈나봐요	-13656
▁지켜달라고	-13657
▁지켜보기만	-13658
▁지켜보는게	-13659
▁지하철에서	-13660
▁직설적으로	-13661
▁진출해볼까	-13662
▁질문이네요	-13663
▁짝사랑만이	-13664
▁짝사랑인지	-13665
▁쪼잔하네요	-13666
▁찌푸려지죠	-13667
▁찜질방에서	-13668
▁차단하는게	-13669
▁찬성이에요	-13670
▁참석하는게	-13671
▁찾아올거라	-13672
▁챙겨드리고	-13673
▁챙겨보세요	-13674
▁챙겨야해요	-13675
▁챙겼나봐요	-13676
▁처리하세요	-13677
▁청구하세요	-13678
▁초대하려고	-13679
▁최고입니다	-13680
▁최우선이죠	-13681
▁추천해들요	-13682
▁축하해주고	-13683
▁출퇴근하기	-13684
▁충실하세요	-13685
▁취미생활은	-13686
▁취준생인데	-13687
▁치열해지는	-13688
▁치워주세요	-13689
▁친구로서와	-13690
▁침묵하세요	-13691
▁침착해야지	-13692
▁침해당하기	-13693
▁커플여행이	-13694
▁코인노래방	-13695
▁코코넛오일	-13696
▁크시겠네요	-13697
▁타임머신이	-13698
▁태산이에요	-13699
▁태어났어요	-13700
▁태어났으면	-13701
▁투성이에요	-13702
▁트라우마가	-13703
▁평범하면서	-13704
▁표현이에요	-13705
▁프로그램을	-13706
▁필요하겠죠	-13707
▁필요하지요	-13708
▁필요할지도	-13709
▁필요합니다	-13710
▁하겠습니다	-13711
▁하는거같아	-13712
▁하더라고요	-13713
▁하루였나요	-13714
▁하루하루를	-13715
▁하셔야해요	-13716
▁하시겠네요	-13717
▁할인점에서	-13718
▁해결하라고	-13719
▁해놨나봐요	-13720
▁해야하나봐	-13721
▁해줘보세요	-13722
▁핸드폰없이	-13723
▁했나봅니다	-13724
▁행동이냐에	-13725
▁행동일수도	-13726
▁행복일지도	-13727
▁행복해지기	-13728
▁행복해하는	-13729
▁헤어졌다는	-13730
▁헤어지자네	-13731
▁헤어짐에도	-13732
▁헷갈리나요	-13733
▁헹궈보세요	-13734
▁현상입니다	-13735
▁현실이에요	-13736
▁혼내줄게요	-13737
▁혼전순결이	-13738
▁홈쇼핑에서	-13739
▁확인해봐요	-13740
▁효과적일까	-13741
▁효도하세요	-13742
▁효율적으로	-13743
▁후련하네여	-13744
▁후련하다니	-13745
▁후련하달까	-13746
▁흘러가네요	-13747
▁흘러갑니다	-13748
▁힘들게네요	-13749
▁힘들겠지요	-13750
▁힘들어져요	-13751
▁가능하다면요	-13752
▁가벼움이네요	-13753
▁감수해보세요	-13754
▁같이해보세요	-13755
▁갚아나가세요	-13756
▁게임해보세요	-13757
▁결혼하고싶어	-13758
▁결혼해야할까	-13759
▁경쟁해야하고	-13760
▁경험해보세요	-13761
▁고백해도될까	-13762
▁공감해주는게	-13763
▁공유해보세요	-13764
▁관리해주세요	-13765
▁괜찮아졌다가	-13766
▁괜찮아지세요	-13767
▁구멍이니까요	-13768
▁구별해보세요	-13769
▁그런건가봐요	-13770
▁기다렸나봐요	-13771
▁기다리게했어	-13772
▁기다린다는게	-13773
▁기대되겠네요	-13774
▁기분일꺼에요	-13775
▁기초대사량을	-13776
▁기프트콘으로	-13777
▁긴장되겠어요	-13778
▁긴장했나봐요	-13779
▁까먹었나봐요	-13780
▁끊어버리세요	-13781
▁나쁘셨나봐요	-13782
▁난감하겠어요	-13783
▁날려버리시길	-13784
▁남자사람친구	-13785
▁낭만이라고는	-13786
▁내딛으셨네요	-13787
▁내려보는것도	-13788
▁다니시나봐요	-13789
▁다듬기만해도	-13790
▁단계인가봐요	-13791
▁단단해지세요	-13792
▁당당해지세요	-13793
▁당신이니까요	-13794
▁대인배시군요	-13795
▁데려다줬는데	-13796
▁도와주었다고	-13797
▁돈버는사람은	-13798
▁되돌아보세요	-13799
▁뒤따르니까요	-13800
▁득템해오세요	-13801
▁들어올거예요	-13802
▁들어줄거예요	-13803
▁들여다보세요	-13804
▁들이대보세요	-13805
▁디자이너에게	-13806
▁리드해보세요	-13807
▁마무리하시길	-13808
▁마음가는대로	-13809
▁막막하겠네요	-13810
▁만들더라고요	-13811
▁만들어주세요	-13812
▁만족해야겠지	-13813
▁말씀이신가요	-13814
▁말조심하세요	-13815
▁멍때리는것도	-13816
▁모른척하세요	-13817
▁무궁무진해요	-13818
▁무시해주세요	-13819
▁물어보시나요	-13820
▁물어봐보세요	-13821
▁물어주시다니	-13822
▁바라겠습니다	-13823
▁받아들여지지	-13824
▁받아들이는게	-13825
▁받으셨겠어요	-13826
▁받으시나봐요	-13827
▁발급받으세요	-13828
▁방문해보세요	-13829
▁변화시켜봐요	-13830
▁변화해보세요	-13831
▁병행해보세요	-13832
▁보관해보세요	-13833
▁보여드리세요	-13834
▁복원해보세요	-13835
▁복잡하겠네요	-13836
▁복잡했나봐요	-13837
▁볼매인가봐요	-13838
▁부담스러운데	-13839
▁부담스러운지	-13840
▁부족했나봐요	-13841
▁북치기박치기	-13842
▁분석해보세요	-13843
▁분양받으세요	-13844
▁불타올랐다가	-13845
▁비슷한가봐요	-13846
▁빌렸으니까요	-13847
▁빨래해보세요	-13848
▁뻐근한가봐요	-13849
▁사과해보세요	-13850
▁사내커플인데	-13851
▁사람들이군요	-13852
▁사랑이라는건	-13853
▁사랑자격증을	-13854
▁사랑하고싶어	-13855
▁사랑하나봐요	-13856
▁사랑해보세요	-13857
▁사셔야겠어요	-13858
▁삼재인가봐요	-13859
▁상처받는다고	-13860
▁상황인가봐요	-13861
▁생각하셔야죠	-13862
▁생각해주세요	-13863
▁선택해보세요	-13864
▁설명해보세요	-13865
▁섬유유연제나	-13866
▁성공할거예요	-13867
▁성장하나봐요	-13868
▁소개해보세요	-13869
▁속상할거예요	-13870
▁쇼핑해보세요	-13871
▁숙면하겠네요	-13872
▁스릴있겠네요	-13873
▁스타일이네요	-13874
▁스타트업하면	-13875
▁스터디하자고	-13876
▁식습관이에요	-13877
▁식이요법이랑	-13878
▁신경쓰인다고	-13879
▁실행해보세요	-13880
▁심경인가봐요	-13881
▁싱숭생숭해서	-13882
▁아니었을지도	-13883
▁안전거리확보	-13884
▁않을까싶어요	-13885
▁알려주나봐요	-13886
▁알바해보세요	-13887
▁어울려보세요	-13888
▁언제부터인지	-13889
▁여우인가봐요	-13890
▁여자사람친구	-13891
▁여자친구와의	-13892
▁연락하고싶어	-13893
▁연락해보는게	-13894
▁연습해봅시다	-13895
▁연애스타일이	-13896
▁예뻐지겠네요	-13897
▁오락가락해요	-13898
▁올려봐보세요	-13899
▁요리해드세요	-13900
▁요청해보세요	-13901
▁원동력이예요	-13902
▁위로해줄게요	-13903
▁윗몸일으키기	-13904
▁유지해보세요	-13905
▁응원해주세요	-13906
▁이겨야한다는	-13907
▁이루어졌으면	-13908
▁이웃으로부터	-13909
▁이해못하겠어	-13910
▁인정받으려면	-13911
▁일어나보세요	-13912
▁일어났나봐요	-13913
▁일하시나봐요	-13914
▁있어드릴게요	-13915
▁자연스러우면	-13916
▁자유여행이죠	-13917
▁자취한다는데	-13918
▁잘해야하나봐	-13919
▁잘해줘보세요	-13920
▁전여자친구가	-13921
▁전환해보세요	-13922
▁정들었나봐요	-13923
▁조심해야해요	-13924
▁조심했어야죠	-13925
▁조언해주세요	-13926
▁좋아보이네요	-13927
▁좋아하는건가	-13928
▁좋아하시니까	-13929
▁좋아해주세요	-13930
▁좋으시겠어요	-13931
▁주무셨나봐요	-13932
▁주저리주저리	-13933
▁중고서점에서	-13934
▁중요해졌어요	-13935
▁지원해보세요	-13936
▁짝사랑하는게	-13937
▁차단해보세요	-13938
▁찾아가보세요	-13939
▁찾아갔습니다	-13940
▁채워드릴게요	-13941
▁청소해보세요	-13942
▁청춘이어야죠	-13943
▁초기화하는게	-13944
▁추가해보세요	-13945
▁추세더라구요	-13946
▁충전해주세요	-13947
▁취직이나라뇨	-13948
▁치료해보세요	-13949
▁크리스마스가	-13950
▁크리스마스에	-13951
▁타이밍이네요	-13952
▁타이밍입니다	-13953
▁택배기사님들	-13954
▁포기안한다고	-13955
▁포커페이스를	-13956
▁프라이버시를	-13957
▁피부관리까지	-13958
▁필요하시군요	-13959
▁필요했을텐데	-13960
▁하셨나보군요	-13961
▁하우스웨딩이	-13962
▁한순간이예요	-13963
▁해결해주지는	-13964
▁행복해보여요	-13965
▁행복해지세요	-13966
▁행복해지시길	-13967
▁행복해질려고	-13968
▁현금영수증은	-13969
▁후회하겠네요	-13970
▁흔들리겠어요	-13971
▁희망적이에요	-13972
▁힘드셨겠어요	-13973
▁힘드시겠네요	-13974
▁힘들어졌어요	-13975
▁가벼워질거예요	-13976
▁감기조심하세요	-13977
▁갑작스럽겠네요	-13978
▁강림했나봅니다	-13979
▁거짓말이겠지요	-13980
▁건강습관이네요	-13981
▁건강습관이에요	-13982
▁건들이지마세요	-13983
▁결정이었겠어요	-13984
▁결정이었나봐요	-13985
▁공기정화식물도	-13986
▁궁금하더라고요	-13987
▁기다려지겠네요	-13988
▁기분나쁘겠어요	-13989
▁날이었나봅니다	-13990
▁두근거리겠네요	-13991
▁모으시는거예요	-13992
▁물어보고싶네요	-13993
▁미끄러질뻔했어	-13994
▁발전시켜보세요	-13995
▁백업해놓으세요	-13996
▁보고싶었나봐요	-13997
▁부담스러워하진	-13998
▁사람이었는가를	-13999
▁사랑했으니까요	-14000
▁사춘기로부터의	-14001
▁상종하지마세요	-14002
▁상처받았나봐요	-14003
▁생각할수있어요	-14004
▁생각해드릴게요	-14005
▁소개시켜주세요	-14006
▁수학여행가는데	-14007
▁시간이었을거라	-14008
▁시기였을거예요	-14009
▁신경쓰지마세요	-14010
▁아니셨을거예요	-14011
▁아니었나봅니다	-14012
▁알아주실거예요	-14013
▁앞머리만이라도	-14014
▁애정표현이라고	-14015
▁엮여있는거예요	-14016
▁연락드려보세요	-14017
▁오지랖이었으면	-14018
▁유행하고있어요	-14019
▁음악감상이라고	-14020
▁이야기해주세요	-14021
▁이어나가니까요	-14022
▁이해해줘야할까	-14023
▁익숙해질거예요	-14024
▁인지시켜보세요	-14025
▁잊혀지더라고요	-14026
▁자유로워지세요	-14027
▁자책하지마세요	-14028
▁잔소리해보세요	-14029
▁저평가되어있는	-14030
▁좋아졌나봅니다	-14031
▁좋아하시나봐요	-14032
▁좌절하지마세요	-14033
▁준비하는방법이	-14034
▁채워나가는거죠	-14035
▁초록초록하네요	-14036
▁크리스마스에는	-14037
▁포기하지마세요	-14038
▁프라이버시니까	-14039
▁피곤하신가봐요	-14040
▁필요해보이네요	-14041
▁하게하고싶은데	-14042
▁허례허식이에요	-14043
▁허전하시겠어요	-14044
▁허전하신가봐요	-14045
▁헤어져야하는게	-14046
▁간질간질한가봐요	-14047
▁갑작스러웠나봐요	-14048
▁게스트하우스에서	-14049
▁궁금해하지마세요	-14050
▁데려다주려나봐요	-14051
▁발렌타인데이인데	-14052
▁사춘기인가봅니다	-14053
▁소개시켜드릴게요	-14054
▁소개팅하기로했어	-14055
▁수면양말인가봐요	-14056
▁스트레칭해주세요	-14057
▁인연이었나봅니다	-14058
▁질척거리지마세요	-14059
▁안전거리확보하세요	-14060
100	-14061
;;;	-14062
▁곡에	-14063
▁국물	-14064
▁국밥	-14065
▁깍아	-14066
▁깰까	-14067
▁낀게	-14068
▁낸거	-14069
▁논문	-14070
▁뇌용	-14071
▁님들	-14072
▁돋아	-14073
▁됬네	-14074
▁둔한	-14075
▁떴다	-14076
▁떼는	-14077
▁떼어	-14078
▁렌터	-14079
▁롤로	-14080
▁맴돈	-14081
▁묘약	-14082
▁묘한	-14083
▁박력	-14084
▁뺏긴	-14085
▁뽀송	-14086
▁썰러	-14087
▁씰룩	-14088
▁얇아	-14089
▁얽매	-14090
▁엊갈	-14091
▁엿먹	-14092
▁옮겨	-14093
▁쥐고	-14094
▁쪘어	-14095
▁쭉쭉	-14096
▁텀이	-14097
▁펴만	-14098
▁풍부	-14099
▁켠에	-14100
▁햇갈	-14101
▁햇살	-14102
▁헐크	-14103
▁험담	-14104
▁홀시	-14105
▁홈닥	-14106
▁홧병	-14107
가기전	-14108
가능성	-14109
게되넹	-14110
게추억	-14111
견해가	-14112
고빙수	-14113
고있니	-14114
그래서	-14115
기네여	-14116
기다려	-14117
꾸미고	-14118
끔직한	-14119
나보네	-14120
는것은	-14121
는정말	-14122
다수의	-14123
던곳들	-14124
라그래	-14125
레질도	-14126
롭지않	-14127
린놈들	-14128
마시며	-14129
문제로	-14130
바꾸던	-14131
반경이	-14132
방망이	-14133
방비상	-14134
범속에	-14135
보낼지	-14136
보려해	-14137
봇할래	-14138
봐야돼	-14139
부르니	-14140
비용이	-14141
빴던게	-14142
사실을	-14143
산휴가	-14144
수학원	-14145
순수한	-14146
시킬게	-14147
신차단	-14148
싫은것	-14149
싶은것	-14150
아볼께	-14151
아플걸	-14152
어린왕	-14153
어먹을	-14154
었기에	-14155
었는줄	-14156
연휴가	-14157
오고있	-14158
와주네	-14159
우울해	-14160
으신가	-14161
은것같	-14162
은지금	-14163
을빌려	-14164
음만을	-14165
이란걸	-14166
인사나	-14167
일짼데	-14168
잊지못	-14169
자아올	-14170
자아자	-14171
적대는	-14172
정권이	-14173
져버린	-14174
조언좀	-14175
줄거다	-14176
쥐베리	-14177
지않네	-14178
지우네	-14179
지질않	-14180
직구를	-14181
집에놀	-14182
징글한	-14183
차단에	-14184
찰랑한	-14185
쳤나바	-14186
출근해	-14187
치워야	-14188
하소연	-14189
한척해	-14190
할꺼야	-14191
할라구	-14192
희망이	-14193
▁119	-14194
▁400	-14195
▁600	-14196
▁가거든	-14197
▁가망이	-14198
▁가입해	-14199
▁촉이	-14200
거였나	-14201
나가나	-14202
불능에	-14203
성노래	-14204
쏟아내	-14205
쏟아져	-14206
잔고가	-14207
한번도	-14208
한번만	-14209
▁ᄒᄒᄒ	-14210
▁가볍진	-14211
▁가사는	-14212
▁가자던	-14213
▁가혹한	-14214
▁간섭이	-14215
▁감추는	-14216
▁감출수	-14217
▁같을때	-14218
▁갠톡은	-14219
▁갱신해	-14220
▁건물주	-14221
▁걸을수	-14222
▁걸테니	-14223
▁겉으로	-14224
▁견딜수	-14225
▁계탔어	-14226
▁고르기	-14227
▁고집부	-14228
▁곤두서	-14229
▁골랐어	-14230
▁과제나	-14231
▁괴로웠	-14232
▁구걸하	-14233
▁구속과	-14234
▁구질구	-14235
▁국밥류	-14236
▁그놈에	-14237
▁그름이	-14238
▁그지임	-14239
▁근교로	-14240
▁근황을	-14241
▁근황이	-14242
▁급우울	-14243
▁기름낀	-14244
▁기뻐해	-14245
▁기쁨과	-14246
▁기적도	-14247
▁기한은	-14248
▁기획사	-14249
▁긴여운	-14250
▁긴여정	-14251
▁깨질지	-14252
▁깼는데	-14253
▁꺼질때	-14254
▁꽝이다	-14255
▁꽝이야	-14256
▁끈을놓	-14257
▁끊겼다	-14258
▁끊기지	-14259
▁끓여서	-14260
▁끔직한	-14261
▁끝낫네	-14262
▁끝낼까	-14263
▁나날들	-14264
▁나름이	-14265
▁나름일	-14266
▁나에겐	-14267
▁낙엽밟	-14268
▁낚시를	-14269
▁난처한	-14270
▁남긴다	-14271
▁낫네여	-14272
▁낮술먹	-14273
▁내꺼야	-14274
▁내면의	-14275
▁내편이	-14276
▁네시에	-14277
▁논문이	-14278
▁높이려	-14279
▁누락된	-14280
▁누워만	-14281
▁눈빛은	-14282
▁능력치	-14283
▁늦잠과	-14284
▁늦잠잤	-14285
▁님들께	-14286
▁다듬어	-14287
▁다쳐요	-14288
▁단수래	-14289
▁달래기	-14290
▁닮아가	-14291
▁답변을	-14292
▁대쉬해	-14293
▁대신에	-14294
▁대잔치	-14295
▁더생각	-14296
▁데서도	-14297
▁독서가	-14298
▁돌싱남	-14299
▁ᄏᄏ	-14300
▁밟고	-14301
▁승부	-14302
▁엉망	-14303
▁엮는	-14304
▁훈남	-14305
▁훈녀	-14306
이키기	-14307
▁뉴게임	-14308
▁돌싱녀	-14309
▁될지모	-14310
▁두렵네	-14311
▁뒤늦게	-14312
▁뒷맛이	-14313
▁들은거	-14314
▁듬직한	-14315
▁떠났데	-14316
▁또오늘	-14317
▁똥차가	-14318
▁렌즈를	-14319
▁렌터카	-14320
▁막걸리	-14321
▁말들음	-14322
▁말만해	-14323
▁맞았네	-14324
▁맴도는	-14325
▁맺느라	-14326
▁머물며	-14327
▁먹으래	-14328
▁먹은거	-14329
▁멀미나	-14330
▁멀었나	-14331
▁멈춰야	-14332
▁몇이게	-14333
▁모쏠도	-14334
▁모질게	-14335
▁몸매가	-14336
▁못가서	-14337
▁못난놈	-14338
▁못났나	-14339
▁못마시	-14340
▁못자면	-14341
▁무난할	-14342
▁무사안	-14343
▁무한반	-14344
▁뭐길래	-14345
▁뭐였나	-14346
▁미루는	-14347
▁믿음의	-14348
▁믿음직	-14349
▁밀려오	-14350
▁반드시	-14351
▁반영되	-14352
▁받기죠	-14353
▁받았지	-14354
▁발등이	-14355
▁발라드	-14356
▁밤늦게	-14357
▁밤샜어	-14358
▁밤이오	-14359
▁방금도	-14360
▁배신감	-14361
▁뱃살이	-14362
▁버릇고	-14363
▁버릇을	-14364
▁버리려	-14365
▁번복되	-14366
▁벗겨져	-14367
▁벗겨질	-14368
▁베프가	-14369
▁베프를	-14370
▁변한걸	-14371
▁보았네	-14372
▁불금에	-14373
▁불륜이	-14374
▁불만만	-14375
▁불만을	-14376
▁불쌍한	-14377
▁불효를	-14378
▁불효자	-14379
▁붙어잇	-14380
▁붙었대	-14381
▁브랜드	-14382
▁비례할	-14383
▁비용을	-14384
▁비우는	-14385
▁비추요	-14386
▁빠졌죠	-14387
▁빡빡한	-14388
▁뺏긴거	-14389
▁뻐근해	-14390
▁뻔뻔해	-14391
▁사무치	-14392
▁사수랑	-14393
▁사전뜻	-14394
▁사전이	-14395
▁사줘요	-14396
▁사치인	-14397
▁사탕을	-14398
▁살던곳	-14399
▁밟는	-14400
▁깊어져	-14401
▁나간대	-14402
▁대우가	-14403
▁들리내	-14404
▁말아줄	-14405
▁몇일에	-14406
▁모으고	-14407
▁분노로	-14408
▁빠른거	-14409
▁살릴듯	-14410
▁살았냐	-14411
▁살았네	-14412
▁상메에	-14413
▁새롭게	-14414
▁서글퍼	-14415
▁선배랑	-14416
▁설렐까	-14417
▁성급한	-14418
▁성적표	-14419
▁세달이	-14420
▁세번째	-14421
▁세탁기	-14422
▁소모는	-14423
▁소용이	-14424
▁소홀히	-14425
▁속은듯	-14426
▁손발이	-14427
▁손편지	-14428
▁손해인	-14429
▁수상한	-14430
▁숨막히	-14431
▁숫자씩	-14432
▁쉬마려	-14433
▁스케줄	-14434
▁슬픔도	-14435
▁슬픔이	-14436
▁승부욕	-14437
▁승진함	-14438
▁시절엔	-14439
▁실례일	-14440
▁실패할	-14441
▁심난한	-14442
▁심남이	-14443
▁심장은	-14444
▁심정에	-14445
▁심정일	-14446
▁심쿵함	-14447
▁싸야돼	-14448
▁싸운다	-14449
▁쌈인지	-14450
▁쌓여가	-14451
▁쌓였네	-14452
▁쌓이기	-14453
▁쓰디쓰	-14454
▁쓰디쓴	-14455
▁쓰일만	-14456
▁씨씨야	-14457
▁아끼지	-14458
▁아련해	-14459
▁아마도	-14460
▁아물지	-14461
▁아부도	-14462
▁안가져	-14463
▁안고쳐	-14464
▁안보낼	-14465
▁안열려	-14466
▁안열림	-14467
▁안오를	-14468
▁안주나	-14469
▁안풀려	-14470
▁않으며	-14471
▁앱에서	-14472
▁어딘가	-14473
▁어째야	-14474
▁엇갈림	-14475
▁엊그제	-14476
▁에이씨	-14477
▁여부인	-14478
▁연하가	-14479
▁열받어	-14480
▁엿같다	-14481
▁예를들	-14482
▁예상치	-14483
▁옛여자	-14484
▁오바야	-14485
▁올인은	-14486
▁왜그랬	-14487
▁왜그런	-14488
▁우는꿈	-14489
▁우상화	-14490
▁웃는척	-14491
▁웃어주	-14492
▁웃으며	-14493
▁원두커	-14494
▁육아휴	-14495
▁의견도	-14496
▁의견을	-14497
▁의자가	-14498
▁이감정	-14499
▁밉다	-14500
각관계	-14501
관관계	-14502
년만나	-14503
면청소	-14504
술한잔	-14505
였던게	-14506
잖아진	-14507
전화가	-14508
절절한	-14509
하자네	-14510
▁가늠도	-14511
▁가늠할	-14512
▁가득찼	-14513
▁가을이	-14514
▁감당할	-14515
▁개념도	-14516
▁고장났	-14517
▁공감되	-14518
▁금연이	-14519
▁깜빡거	-14520
▁낭비일	-14521
▁넘어갔	-14522
▁느낀게	-14523
▁느낀바	-14524
▁떠났네	-14525
▁말하자	-14526
▁못만나	-14527
▁보조베	-14528
▁볼건데	-14529
▁부끄러	-14530
▁붙였던	-14531
▁성관계	-14532
▁알수가	-14533
▁유형이	-14534
▁이래라	-14535
▁이르지	-14536
▁이를까	-14537
▁이모양	-14538
▁이쁘다	-14539
▁인상해	-14540
▁일반화	-14541
▁일인줄	-14542
▁일일일	-14543
▁일화가	-14544
▁입맛없	-14545
▁입소문	-14546
▁있잖아	-14547
▁잊기싫	-14548
▁잊기위	-14549
▁잊으려	-14550
▁자금도	-14551
▁자르지	-14552
▁자식방	-14553
▁자취방	-14554
▁잔고가	-14555
▁잘낫네	-14556
▁잘맞아	-14557
▁잠들기	-14558
▁잡념이	-14559
▁장점과	-14560
▁잼있어	-14561
▁저장명	-14562
▁적당해	-14563
▁전역할	-14564
▁전해듣	-14565
▁절망을	-14566
▁정량이	-14567
▁젖어드	-14568
▁제약이	-14569
▁조용한	-14570
▁조카들	-14571
▁졸리다	-14572
▁종지부	-14573
▁좋겠음	-14574
▁죄송해	-14575
▁주절주	-14576
▁주차할	-14577
▁주체가	-14578
▁주체할	-14579
▁주택에	-14580
▁줄여줄	-14581
▁중이데	-14582
▁줬다고	-14583
▁줬다면	-14584
▁지겹네	-14585
▁지겹다	-14586
▁지독한	-14587
▁지속할	-14588
▁지웠을	-14589
▁지친걸	-14590
▁지친듯	-14591
▁지침서	-14592
▁직업이	-14593
▁직후는	-14594
▁진도는	-14595
▁진행중	-14596
▁질문함	-14597
▁집나가	-14598
▁집앞에	-14599
▁닫을	-14600
▁밖은	-14601
▁임신	-14602
▁젊게	-14603
▁찼는	-14604
▁닫는게	-14605
▁분들께	-14606
▁임신이	-14607
▁집청소	-14608
▁짬뽕이	-14609
▁짱좋아	-14610
▁쪘나봐	-14611
▁쪽으로	-14612
▁쪽팔린	-14613
▁쫄았어	-14614
▁찌르기	-14615
▁찍은것	-14616
▁찔러본	-14617
▁찢어지	-14618
▁차버린	-14619
▁착잡한	-14620
▁찬물만	-14621
▁찰랑거	-14622
▁참을껄	-14623
▁참을만	-14624
▁처럼요	-14625
▁척도는	-14626
▁첫눈이	-14627
▁첫시작	-14628
▁초라해	-14629
▁촬영은	-14630
▁추석에	-14631
▁추우니	-14632
▁추운날	-14633
▁취급함	-14634
▁치맥먹	-14635
▁치열한	-14636
▁치열해	-14637
▁치킨집	-14638
▁친추를	-14639
▁친추에	-14640
▁켜놓고	-14641
▁켜면서	-14642
▁쿨하게	-14643
▁키스함	-14644
▁타로점	-14645
▁탄생을	-14646
▁탄생의	-14647
▁탄탄한	-14648
▁태몽꾼	-14649
▁터졌네	-14650
▁텁텁해	-14651
▁토닥여	-14652
▁특징이	-14653
▁특히나	-14654
▁티비에	-14655
▁티조차	-14656
▁팔뚝살	-14657
▁패션은	-14658
▁퍼붓고	-14659
▁퍼주는	-14660
▁평가할	-14661
▁평가해	-14662
▁평범함	-14663
▁포장마	-14664
▁표정만	-14665
▁푸석푸	-14666
▁풀리길	-14667
▁풍부한	-14668
▁필름이	-14669
▁하더군	-14670
▁하라네	-14671
▁하려는	-14672
▁하소연	-14673
▁하진짜	-14674
▁하트를	-14675
▁학용품	-14676
▁한계인	-14677
▁한쪽만	-14678
▁한쪽이	-14679
▁한켠엔	-14680
▁해달래	-14681
▁해봐야	-14682
▁해줄수	-14683
▁허기져	-14684
▁허락을	-14685
▁허락하	-14686
▁허절할	-14687
▁험담을	-14688
▁현타가	-14689
▁호칭은	-14690
▁호칭을	-14691
▁호칭이	-14692
▁홈닥터	-14693
▁화내실	-14694
▁확률은	-14695
▁황당해	-14696
▁회의감	-14697
▁훈훈해	-14698
▁흑기사	-14699
▁볶고	-14700
문자를	-14701
스피린	-14702
시키면	-14703
시키죠	-14704
▁건조해	-14705
▁글쓰는	-14706
▁낸다면	-14707
▁냉정할	-14708
▁뒀으면	-14709
▁들이긴	-14710
▁멍청해	-14711
▁발목을	-14712
▁빌어줘	-14713
▁생리현	-14714
▁서툴어	-14715
▁온종일	-14716
▁운이좋	-14717
▁위장에	-14718
▁의사는	-14719
▁이순간	-14720
▁정류장	-14721
▁정의가	-14722
▁정의내	-14723
▁조건도	-14724
▁조건을	-14725
▁줄어든	-14726
▁지울게	-14727
▁지울수	-14728
▁참지못	-14729
▁축복일	-14730
▁충격을	-14731
▁침대가	-14732
▁패턴을	-14733
▁할수있	-14734
▁회복되	-14735
▁흔적을	-14736
▁힘겨움	-14737
감각한데	-14738
감았더니	-14739
개버리네	-14740
건가보네	-14741
걸리겠어	-14742
결정권이	-14743
고민인데	-14744
구싶네요	-14745
구절절한	-14746
궈주는데	-14747
기다리지	-14748
기라더니	-14749
기싫은것	-14750
끝이겟죠	-14751
나는새끼	-14752
년만나다	-14753
녔던곳들	-14754
는데ᄏᄏ	-14755
다녀와서	-14756
다는걸아	-14757
다보니까	-14758
달반정도	-14759
당했다는	-14760
대기네요	-14761
대해져도	-14762
도와주네	-14763
되셨군요	-14764
된거겠지	-14765
드린놈들	-14766
듭문자를	-14767
래희망이	-14768
로술한잔	-14769
마음일까	-14770
만나보니	-14771
만나자는	-14772
먹을수록	-14773
메이크업	-14774
바구니까	-14775
받았다고	-14776
방망이로	-14777
방비상태	-14778
버리겠다	-14779
별할까요	-14780
보고싶고	-14781
생각인지	-14782
성노래가	-14783
소에서의	-14784
신청했어	-14785
싫어졌어	-14786
싶은것만	-14787
쓸때마다	-14788
안오겠죠	-14789
았다는게	-14790
야되는데	-14791
어게추억	-14792
어보려고	-14793
언제까지	-14794
오를수도	-14795
원했지만	-14796
으렵니다	-14797
으신가요	-14798
이가없네	-14799
▁끌리	-14800
▁끌어	-14801
▁낙이	-14802
▁레고	-14803
▁며느	-14804
▁빈도	-14805
▁색을	-14806
▁앉은	-14807
▁앉죠	-14808
▁칼칼	-14809
▁탔어	-14810
▁활발	-14811
▁휘어	-14812
간다네	-14813
게해준	-14814
무슨의	-14815
▁끌어올	-14816
▁또났어	-14817
▁브라이	-14818
▁빈도랑	-14819
▁색으로	-14820
▁서러운	-14821
▁앉은듯	-14822
▁역할은	-14823
▁예랑이	-14824
▁진담을	-14825
▁차렸을	-14826
▁척도를	-14827
▁침묵이	-14828
▁칼칼해	-14829
▁활발한	-14830
무슨의미	-14831
이야기가	-14832
이야기를	-14833
잊은것같	-14834
잊혀지네	-14835
잊혀지려	-14836
장하겠어	-14837
적일수록	-14838
전하소연	-14839
제불능에	-14840
조언부탁	-14841
주가지나	-14842
주렵니다	-14843
중적인데	-14844
지망에서	-14845
지우는게	-14846
직이지만	-14847
질라그래	-14848
찌보낼지	-14849
총회인데	-14850
커플이야	-14851
하게좋아	-14852
하느냐에	-14853
하자는거	-14854
하자는데	-14855
해달라는	-14856
해보려고	-14857
해줬더니	-14858
해집니다	-14859
했다면서	-14860
향적이면	-14861
헤어졌네	-14862
헤어지게	-14863
▁가까웠던	-14864
▁가라앉았	-14865
▁가려질까	-14866
▁가벼웠던	-14867
▁가운데서	-14868
▁가출해도	-14869
▁가치조차	-14870
▁갈구는게	-14871
▁감당하기	-14872
▁감미로운	-14873
▁감수성이	-14874
▁갔다올게	-14875
▁강요하지	-14876
▁개당황했	-14877
▁갠톡하는	-14878
▁갠톡하면	-14879
▁갱신하네	-14880
▁거리두기	-14881
▁걸레질도	-14882
▁걸렸나봐	-14883
▁걸렸지만	-14884
▁걸린만큼	-14885
▁겁이나고	-14886
▁겉모습에	-14887
▁겉모습이	-14888
▁겉으로는	-14889
▁견디고있	-14890
▁결심이서	-14891
▁결정이든	-14892
▁경우에만	-14893
▁경제력도	-14894
▁계약하는	-14895
▁고급이야	-14896
▁고백조차	-14897
▁고치겠어	-14898
▁고치도록	-14899
▁썩은	-14900
▁새해다	-14901
▁성별에	-14902
▁성향은	-14903
▁솔로죠	-14904
▁신뢰에	-14905
▁신뢰이	-14906
▁아플줄	-14907
▁애교는	-14908
▁애교부	-14909
▁연속인	-14910
▁였는데	-14911
▁은퇴가	-14912
▁의심을	-14913
▁지갑이	-14914
▁	-14915
.	-14916
요	-14917
이	-14918
어	-14919
는	-14920
하	-14921
아	-14922
가	-14923
지	-14924
다	-14925
해	-14926
고	-14927
세	-14928
을	-14929
나	-14930
사	-14931
보	-14932
도	-14933
거	-14934
게	-14935
좋	-14936
에	-14937
자	-14938
있	-14939
은	-14940
기	-14941
면	-14942
한	-14943
까	-14944
?	-14945
네	-14946
만	-14947
니	-14948
데	-14949
마	-14950
랑	-14951
예	-14952
서	-14953
그	-14954
겠	-14955
로	-14956
시	-14957
리	-14958
들	-14959
람	-14960
생	-14961
인	-14962
무	-14963
라	-14964
일	-14965
수	-14966
야	-14967
같	-14968
남	-14969
안	-14970
할	-14971
친	-14972
정	-14973
연	-14974
를	-14975
구	-14976
으	-14977
말	-14978
여	-14979
주	-14980
내	-14981
봐	-14982
의	-14983
죠	-14984
음	-14985
없	-14986
싶	-14987
각	-14988
제	-14989
신	-14990
것	-14991
려	-14992
오	-14993
잘	-14994
힘	-14995
너	-14996
대	-14997
상	-14998
간	-14999
많	-15000
별	-15001
더	-15002
바	-15003
않	-15004
했	-15005
스	-15006
진	-15007
부	-15008
되	-15009
애	-15010
전	-15011
드	-15012
락	-15013
었	-15014
건	-15015
저	-15016
때	-15017
모	-15018
헤	-15019
금	-15020
중	-15021
심	-15022
짝	-15023
운	-15024
화	-15025
길	-15026
썸	-15027
혼	-15028
비	-15029
워	-15030
못	-15031
러	-15032
장	-15033
물	-15034
미	-15035
적	-15036
분	-15037
알	-15038
감	-15039
먹	-15040
히	-15041
걸	-15042
습	-15043
래	-15044
당	-15045
우	-15046
받	-15047
테	-15048
행	-15049
결	-15050
소	-15051
선	-15052
달	-15053
날	-15054
르	-15055
직	-15056
좀	-15057
후	-15058
살	-15059
조	-15060
회	-15061
관	-15062
!	-15063
늘	-15064
았	-15065
타	-15066
돼	-15067
든	-15068
방	-15069
될	-15070
동	-15071
녀	-15072
실	-15073
복	-15074
차	-15075
과	-15076
질	-15077
뭐	-15078
른	-15079
찮	-15080
공	-15081
와	-15082
트	-15083
끝	-15084
괜	-15085
속	-15086
원	-15087
계	-15088
처	-15089
치	-15090
필	-15091
잊	-15092
두	-15093
집	-15094
문	-15095
귀	-15096
유	-15097
편	-15098
난	-15099
준	-15100
재	-15101
졌	-15102
경	-15103
런	-15104
던	-15105
답	-15106
줄	-15107
성	-15108
울	-15109
피	-15110
왜	-15111
년	-15112
렇	-15113
식	-15114
떻	-15115
느	-15116
꾸	-15117
볼	-15118
져	-15119
개	-15120
위	-15121
버	-15122
왔	-15123
떨	-15124
입	-15125
현	-15126
작	-15127
배	-15128
번	-15129
노	-15130
눈	-15131
새	-15132
맞	-15133
언	-15134
추	-15135
났	-15136
짜	-15137
또	-15138
법	-15139
잠	-15140
프	-15141
올	-15142
단	-15143
민	-15144
참	-15145
함	-15146
쓰	-15147
학	-15148
디	-15149
따	-15150
싫	-15151
력	-15152
줘	-15153
확	-15154
반	-15155
찾	-15156
겨	-15157
변	-15158
잡	-15159
담	-15160
쉬	-15161
억	-15162
카	-15163
능	-15164
점	-15165
갈	-15166
터	-15167
먼	-15168
얼	-15169
합	-15170
근	-15171
용	-15172
통	-15173
매	-15174
표	-15175
놀	-15176
술	-15177
천	-15178
절	-15179
레	-15180
련	-15181
백	-15182
누	-15183
럴	-15184
돌	-15185
머	-15186
불	-15187
맛	-15188
루	-15189
릴	-15190
발	-15191
긴	-15192
몰	-15193
호	-15194
듯	-15195
움	-15196
봅	-15197
꿈	-15198
충	-15199
랄	-15200
교	-15201
막	-15202
톡	-15203
청	-15204
파	-15205
약	-15206
접	-15207
증	-15208
영	-15209
돈	-15210
1	-15211
군	-15212
됐	-15213
취	-15214
싸	-15215
월	-15216
젠	-15217
큼	-15218
강	-15219
놓	-15220
닌	-15221
명	-15222
빠	-15223
째	-15224
곳	-15225
된	-15226
랍	-15227
외	-15228
떠	-15229
망	-15230
쁜	-15231
택	-15232
겼	-15233
믿	-15234
순	-15235
쉽	-15236
크	-15237
걱	-15238
국	-15239
임	-15240
갑	-15241
께	-15242
름	-15243
커	-15244
2	-15245
씩	-15246
업	-15247
맘	-15248
셨	-15249
앞	-15250
축	-15251
키	-15252
럽	-15253
였	-15254
온	-15255
,	-15256
열	-15257
폰	-15258
황	-15259
짐	-15260
설	-15261
휴	-15262
냥	-15263
슨	-15264
침	-15265
텐	-15266
뭘	-15267
쁘	-15268
슬	-15269
3	-15270
떤	-15271
럼	-15272
님	-15273
엄	-15274
궁	-15275
렸	-15276
최	-15277
허	-15278
켜	-15279
혀	-15280
착	-15281
쳐	-15282
출	-15283
태	-15284
양	-15285
격	-15286
족	-15287
험	-15288
급	-15289
록	-15290
잔	-15291
깨	-15292
존	-15293
포	-15294
갔	-15295
늦	-15296
린	-15297
환	-15298
즐	-15299
픈	-15300
형	-15301
ᅲ	-15302
몸	-15303
죽	-15304
체	-15305
떡	-15306
본	-15307
벌	-15308
책	-15309
극	-15310
냐	-15311
덜	-15312
산	-15313
종	-15314
챙	-15315
풀	-15316
목	-15317
써	-15318
첫	-15319
넘	-15320
플	-15321
란	-15322
항	-15323
멋	-15324
완	-15325
찍	-15326
티	-15327
낌	-15328
뿐	-15329
팅	-15330
향	-15331
붙	-15332
밥	-15333
셔	-15334
웃	-15335
견	-15336
응	-15337
초	-15338
활	-15339
글	-15340
손	-15341
평	-15342
끔	-15343
꼭	-15344
맨	-15345
숙	-15346
씨	-15347
폭	-15348
흘	-15349
즘	-15350
큰	-15351
탈	-15352
0	-15353
굴	-15354
뜻	-15355
줬	-15356
투	-15357
~	-15358
욕	-15359
짓	-15360
낼	-15361
닐	-15362
색	-15363
씀	-15364
곤	-15365
둘	-15366
봤	-15367
빨	-15368
뻐	-15369
뭔	-15370
솔	-15371
페	-15372
5	-15373
슴	-15374
풍	-15375
메	-15376
밀	-15377
코	-15378
꽃	-15379
병	-15380
척	-15381
냈	-15382
딱	-15383
똑	-15384
몇	-15385
졸	-15386
핸	-15387
껴	-15388
밤	-15389
며	-15390
벽	-15391
4	-15392
픔	-15393
독	-15394
찬	-15395
쳤	-15396
갖	-15397
듣	-15398
랐	-15399
림	-15400
옷	-15401
덤	-15402
밌	-15403
랜	-15404
승	-15405
역	-15406
짧	-15407
퇴	-15408
괴	-15409
끊	-15410
밖	-15411
봄	-15412
쓸	-15413
익	-15414
칭	-15415
핑	-15416
S	-15417
뒤	-15418
빼	-15419
펴	-15420
흐	-15421
6	-15422
꺼	-15423
료	-15424
박	-15425
베	-15426
빌	-15427
숨	-15428
악	-15429
칠	-15430
웠	-15431
흔	-15432
끼	-15433
얘	-15434
엇	-15435
깐	-15436
녕	-15437
득	-15438
렵	-15439
롭	-15440
렀	-15441
멀	-15442
깊	-15443
뎌	-15444
춰	-15445
케	-15446
곧	-15447
골	-15448
낫	-15449
석	-15450
높	-15451
삶	-15452
읽	-15453
잖	-15454
찌	-15455
채	-15456
헷	-15457
념	-15458
등	-15459
멍	-15460
숭	-15461
염	-15462
킨	-15463
퍼	-15464
꼬	-15465
냉	-15466
철	-15467
s	-15468
겁	-15469
꿨	-15470
뜨	-15471
벗	-15472
창	-15473
탁	-15474
끄	-15475
맥	-15476
섭	-15477
쇼	-15478
쩌	-15479
쯤	-15480
판	-15481
꿀	-15482
덧	-15483
션	-15484
십	-15485
클	-15486
특	-15487
ᄒ	-15488
덕	-15489
북	-15490
센	-15491
옆	-15492
팔	-15493
효	-15494
랬	-15495
례	-15496
립	-15497
뻔	-15498
엔	-15499
쟁	-15500
쩔	-15501
틀	-15502
틱	-15503
품	-15504
헛	-15505
ᅮ	-15506
김	-15507
깝	-15508
꿔	-15509
놈	-15510
딩	-15511
류	-15512
밍	-15513
삼	-15514
콩	-15515
패	-15516
희	-15517
권	-15518
냄	-15519
멈	-15520
싱	-15521
쌓	-15522
육	-15523
낭	-15524
땐	-15525
론	-15526
릿	-15527
삭	-15528
샀	-15529
엽	-15530
죄	-15531
즈	-15532
걷	-15533
놔	-15534
눠	-15535
됩	-15536
량	-15537
셀	-15538
턴	-15539
텨	-15540
토	-15541
획	-15542
귄	-15543
됨	-15544
브	-15545
뿌	-15546
액	-15547
7	-15548
N	-15549
깍	-15550
깔	-15551
뀌	-15552
녁	-15553
닥	-15554
벼	-15555
봇	-15556
웨	-15557
푸	-15558
혹	-15559
8	-15560
뀔	-15561
끈	-15562
뉴	-15563
뒷	-15564
듭	-15565
쐬	-15566
잤	-15567
흡	-15568
귈	-15569
긍	-15570
꼼	-15571
농	-15572
둬	-15573
딸	-15574
슷	-15575
썼	-15576
옴	-15577
컨	-15578
흥	-15579
갚	-15580
깜	-15581
끌	-15582
닫	-15583
렌	-15584
블	-15585
쓴	-15586
씹	-15587
왕	-15588
춥	-15589
콜	-15590
푹	-15591
ᄏ	-15592
걔	-15593
곰	-15594
규	-15595
낮	-15596
넌	-15597
넣	-15598
딴	-15599
뛰	-15600
링	-15601
뽑	-15602
씻	-15603
쪽	-15604
찰	-15605
춘	-15606
칼	-15607
컴	-15608
9	-15609
n	-15610
값	-15611
곁	-15612
깎	-15613
끗	-15614
낸	-15615
널	-15616
듬	-15617
렘	-15618
맙	-15619
몽	-15620
밝	-15621
봉	-15622
빛	-15623
빡	-15624
옥	-15625
잃	-15626
첩	-15627
콘	-15628
콤	-15629
탄	-15630
탔	-15631
헬	-15632
혔	-15633
겹	-15634
껏	-15635
꾹	-15636
닉	-15637
딪	-15638
랫	-15639
룩	-15640
뤄	-15641
맡	-15642
벚	-15643
빈	-15644
샤	-15645
앉	-15646
잇	-15647
탕	-15648
털	-15649
힌	-15650
'	-15651
검	-15652
낀	-15653
납	-15654
넓	-15655
녹	-15656
닮	-15657
둔	-15658
땀	-15659
땅	-15660
띄	-15661
롱	-15662
벤	-15663
엉	-15664
잼	-15665
짠	-15666
찔	-15667
콕	-15668
툰	-15669
팍	-15670
A	-15671
낄	-15672
늙	-15673
땡	-15674
뚝	-15675
렬	-15676
령	-15677
뢰	-15678
볶	-15679
빵	-15680
뻑	-15681
뽀	-15682
쁠	-15683
섬	-15684
씁	-15685
압	-15686
얻	-15687
왤	-15688
웬	-15689
젖	-15690
짱	-15691
킁	-15692
템	-15693
푼	-15694
햇	-15695
훈	-15696
객	-15697
곡	-15698
긋	-15699
꼈	-15700
꽤	-15701
끓	-15702
낙	-15703
낳	-15704
뒀	-15705
뜰	-15706
뱃	-15707
송	-15708
싼	-15709
쌩	-15710
앗	-15711
징	-15712
쩍	-15713
쪄	-15714
쪼	-15715
찼	-15716
춤	-15717
층	-15718
켠	-15719
탐	-15720
툴	-15721
휘	-15722
;	-15723
곱	-15724
광	-15725
궈	-15726
낚	-15727
눅	-15728
늠	-15729
닝	-15730
닿	-15731
돋	-15732
둠	-15733
둥	-15734
뒹	-15735
똥	-15736
롤	-15737
릎	-15738
묻	-15739
밑	-15740
밟	-15741
벅	-15742
범	-15743
쉴	-15744
슈	-15745
쌍	-15746
썹	-15747
쑥	-15748
옳	-15749
욱	-15750
젯	-15751
찜	-15752
찢	-15753
첨	-15754
퀴	-15755
톱	-15756
툼	-15757
틋	-15758
팩	-15759
팸	-15760
퓨	-15761
헥	-15762
흑	-15763
겟	-15764
긁	-15765
꾼	-15766
댈	-15767
렛	-15768
렜	-15769
률	-15770
릅	-15771
묵	-15772
볍	-15773
빚	-15774
쁨	-15775
삐	-15776
싹	-15777
쌈	-15778
쎄	-15779
쏟	-15780
쏠	-15781
씌	-15782
엮	-15783
왠	-15784
윗	-15785
쫄	-15786
쫌	-15787
찐	-15788
촉	-15789
츠	-15790
켰	-15791
쿨	-15792
탓	-15793
틈	-15794
팀	-15795
팠	-15796
폼	-15797
헌	-15798
홀	-15799
힐	-15800
B	-15801
C	-15802
a	-15803
갠	-15804
겪	-15805
굳	-15806
껄	-15807
꼰	-15808
꽉	-15809
넷	-15810
놨	-15811
댓	-15812
덥	-15813
딘	-15814
딛	-15815
떼	-15816
뚫	-15817
램	-15818
릇	-15819
맴	-15820
맷	-15821
맺	-15822
멘	-15823
몫	-15824
밉	-15825
빙	-15826
빴	-15827
샌	-15828
앨	-15829
엠	-15830
욜	-15831
웹	-15832
율	-15833
좌	-15834
줌	-15835
쥐	-15836
짚	-15837
짰	-15838
쭉	-15839
쭤	-15840
총	-15841
촬	-15842
컥	-15843
컷	-15844
컸	-15845
텁	-15846
텔	-15847
팁	-15848
팬	-15849
펑	-15850
풋	-15851
핫	-15852
훔	-15853
흠	-15854
-	-15855
갱	-15856
겉	-15857
겐	-15858
깰	-15859
꽝	-15860
꿰	-15861
넋	-15862
뇌	-15863
눌	-15864
눕	-15865
닷	-15866
댄	-15867
돕	-15868
됬	-15869
딜	-15870
땜	-15871
떴	-15872
뜬	-15873
띠	-15874
랖	-15875
랙	-15876
렐	-15877
렴	-15878
륵	-15879
몬	-15880
묘	-15881
샜	-15882
숫	-15883
썩	-15884
앱	-15885
얽	-15886
엊	-15887
엿	-15888
옵	-15889
왓	-15890
젤	-15891
졋	-15892
짼	-15893
측	-15894
캬	-15895
쿠	-15896
쿵	-15897
킬	-15898
턱	-15899
텀	-15900
텅	-15901
툭	-15902
헐	-15903
헹	-15904
홈	-15905
홧	-15906
%	-15907
D	-15908
O	-15909
P	-15910
X	-15911
c	-15912
g	-15913
o	-15914
걍	-15915
겜	-15916
괘	-15917
균	-15918
귤	-15919
깃	-15920
깅	-15921
깬	-15922
깼	-15923
꼴	-15924
꽂	-15925
꿩	-15926
넛	-15927
넥	-15928
넹	-15929
녔	-15930
논	-15931
뇨	-15932
눴	-15933
닦	-15934
닭	-15935
댔	-15936
덩	-15937
덮	-15938
뚱	-15939
띰	-15940
띵	-15941
랭	-15942
렉	-15943
룰	-15944
룸	-15945
룽	-15946
륜	-15947
릭	-15948
맹	-15949
뮤	-15950
밭	-15951
벨	-15952
볕	-15953
붓	-15954
뷔	-15955
빽	-15956
뺏	-15957
뻤	-15958
뽕	-15959
뿅	-15960
삔	-15961
샐	-15962
샘	-15963
섞	-15964
섣	-15965
섯	-15966
섰	-15967
섹	-15968
솜	-15969
쇠	-15970
숏	-15971
썰	-15972
쑤	-15973
씰	-15974
씸	-15975
얇	-15976
옛	-15977
옮	-15978
왼	-15979
웁	-15980
웽	-15981
윙	-15982
젊	-15983
젝	-15984
줍	-15985
쥬	-15986
즙	-15987
짤	-15988
짬	-15989
쨌	-15990
쪘	-15991
찡	-15992
찹	-15993
챘	-15994
쳇	-15995
칩	-15996
캄	-15997
캐	-15998
캔	-15999
